<unk>	0
<s>	0
</s>	0
▁t	-0
▁a	-1
he	-2
in	-3
▁the	-4
▁s	-5
re	-6
▁w	-7
▁o	-8
is	-9
er	-10
nd	-11
▁f	-12
▁m	-13
▁b	-14
it	-15
at	-16
ing	-17
▁c	-18
en	-19
es	-20
or	-21
ou	-22
▁th	-23
on	-24
▁h	-25
ll	-26
an	-27
▁and	-28
▁to	-29
▁of	-30
▁p	-31
ar	-32
▁d	-33
ed	-34
as	-35
▁in	-36
▁l	-37
om	-38
▁I	-39
▁is	-40
ic	-41
br	-42
▁g	-43
▁/	-44
▁/>	-45
le	-46
▁e	-47
ot	-48
▁n	-49
al	-50
ut	-51
st	-52
ct	-53
il	-54
▁it	-55
▁be	-56
▁T	-57
ve	-58
ie	-59
ly	-60
▁mo	-61
▁re	-62
▁on	-63
▁that	-64
ver	-65
ow	-66
ad	-67
ent	-68
▁he	-69
ion	-70
im	-71
▁this	-72
ay	-73
▁wh	-74
se	-75
▁st	-76
et	-77
gh	-78
id	-79
ch	-80
▁was	-81
▁mov	-82
▁y	-83
▁/><	-84
ith	-85
ilm	-86
all	-87
▁for	-88
▁film	-89
oo	-90
▁as	-91
▁A	-92
▁u	-93
ce	-94
▁S	-95
▁with	-96
▁an	-97
am	-98
ke	-99
ld	-100
▁se	-101
▁The	-102
ir	-103
▁movie	-104
ro	-105
▁you	-106
▁ha	-107
ri	-108
.<	-109
▁B	-110
her	-111
ur	-112
▁li	-113
▁M	-114
▁but	-115
▁we	-116
ra	-117
▁not	-118
ally	-119
ill	-120
▁(	-121
ter	-122
▁C	-123
▁"	-124
▁H	-125
ck	-126
▁are	-127
▁sh	-128
ome	-129
▁W	-130
▁his	-131
▁ch	-132
pe	-133
ers	-134
ould	-135
▁at	-136
ul	-137
▁D	-138
▁have	-139
ght	-140
..	-141
if	-142
em	-143
▁su	-144
ust	-145
un	-146
▁j	-147
▁fr	-148
out	-149
▁sc	-150
▁act	-151
▁do	-152
ain	-153
ess	-154
▁ex	-155
ble	-156
▁who	-157
▁one	-158
el	-159
▁k	-160
▁so	-161
▁com	-162
ood	-163
▁pl	-164
very	-165
act	-166
▁all	-167
ant	-168
art	-169
ies	-170
▁ab	-171
ak	-172
pp	-173
▁by	-174
us	-175
▁al	-176
ag	-177
ol	-178
▁v	-179
▁P	-180
est	-181
ous	-182
op	-183
th	-184
▁de	-185
ist	-186
▁L	-187
and	-188
▁R	-189
▁ne	-190
▁wor	-191
▁from	-192
ast	-193
▁they	-194
▁F	-195
one	-196
▁like	-197
▁out	-198
ven	-199
▁some	-200
▁r	-201
▁J	-202
▁int	-203
▁whe	-204
qu	-205
▁her	-206
▁con	-207
▁G	-208
▁or	-209
ation	-210
um	-211
fe	-212
ough	-213
red	-214
au	-215
▁Th	-216
▁It	-217
ate	-218
▁me	-219
▁about	-220
▁has	-221
▁just	-222
res	-223
ich	-224
ind	-225
os	-226
ive	-227
ory	-228
▁N	-229
ard	-230
▁pro	-231
ack	-232
▁can	-233
▁char	-234
pt	-235
ort	-236
▁un	-237
▁tim	-238
▁E	-239
ig	-240
ire	-241
ud	-242
ook	-243
ake	-244
▁le	-245
reat	-246
ight	-247
▁O	-248
▁good	-249
▁charact	-250
▁any	-251
▁man	-252
ong	-253
▁wat	-254
▁tr	-255
▁lo	-256
▁more	-257
▁up	-258
▁get	-259
▁go	-260
▁no	-261
ity	-262
▁fe	-263
▁would	-264
▁very	-265
▁see	-266
The	-267
ound	-268
ther	-269
▁my	-270
▁what	-271
▁there	-272
ite	-273
▁story	-274
ge	-275
ame	-276
▁bec	-277
nt	-278
▁This	-279
ide	-280
able	-281
▁she	-282
▁time	-283
od	-284
▁1	-285
▁when	-286
▁en	-287
▁-	-288
hing	-289
▁were	-290
▁had	-291
ure	-292
▁really	-293
▁only	-294
ell	-295
ore	-296
ab	-297
▁K	-298
▁scen	-299
itt	-300
▁their	-301
oy	-302
▁watch	-303
▁if	-304
▁him	-305
▁show	-306
▁even	-307
▁per	-308
▁which	-309
ious	-310
so	-311
▁other	-312
pl	-313
ink	-314
ial	-315
ick	-316
▁cl	-317
man	-318
ment	-319
▁than	-320
te	-321
our	-322
ars	-323
▁them	-324
ond	-325
ine	-326
ap	-327
▁does	-328
▁did	-329
og	-330
▁kn	-331
ays	-332
uch	-333
ade	-334
▁end	-335
are	-336
ves	-337
ause	-338
▁pe	-339
ac	-340
ice	-341
▁qu	-342
▁great	-343
▁much	-344
▁bad	-345
▁bet	-346
▁look	-347
▁ar	-348
ue	-349
irect	-350
irst	-351
ople	-352
...	-353
▁been	-354
▁could	-355
▁over	-356
▁po	-357
▁im	-358
▁will	-359
ple	-360
▁into	-361
▁how	-362
ert	-363
lf	-364
ence	-365
ne	-366
▁well	-367
int	-368
▁pre	-369
▁most	-370
ry	-371
▁people	-372
▁think	-373
ose	-374
▁ro	-375
▁know	-376
▁tw	-377
age	-378
ass	-379
for	-380
▁because	-381
▁ad	-382
other	-383
▁dis	-384
▁too	-385
per	-386
▁us	-387
av	-388
fter	-389
ful	-390
ors	-391
▁ag	-392
ff	-393
▁direct	-394
▁made	-395
▁first	-396
▁real	-397
▁make	-398
▁part	-399
ile	-400
▁every	-401
▁off	-402
▁am	-403
ull	-404
▁thing	-405
ish	-406
ict	-407
aw	-408
▁way	-409
ere	-410
▁also	-411
ny	-412
oll	-413
ated	-414
▁fun	-415
ost	-416
ary	-417
▁'	-418
▁seem	-419
gin	-420
▁wr	-421
ty	-422
▁thr	-423
▁don	-424
akes	-425
▁movies	-426
▁its	-427
ical	-428
▁character	-429
own	-430
ans	-431
ress	-432
ep	-433
▁work	-434
▁Y	-435
iew	-436
▁bl	-437
▁sp	-438
ng	-439
▁characters	-440
ace	-441
▁And	-442
ually	-443
▁gu	-444
ob	-445
hed	-446
▁Ch	-447
ance	-448
cc	-449
pect	-450
▁fl	-451
▁films	-452
▁play	-453
fect	-454
iz	-455
▁te	-456
self	-457
▁plot	-458
▁ye	-459
ving	-460
▁then	-461
▁seen	-462
▁Wh	-463
ces	-464
▁want	-465
▁But	-466
▁V	-467
omet	-468
▁ser	-469
▁aw	-470
ittle	-471
▁being	-472
),	-473
▁your	-474
▁after	-475
▁In	-476
▁two	-477
).	-478
▁love	-479
▁say	-480
▁many	-481
▁never	-482
▁acting	-483
▁He	-484
get	-485
urn	-486
ip	-487
nder	-488
ang	-489
mer	-490
▁through	-491
ark	-492
▁back	-493
ens	-494
▁where	-495
▁life	-496
▁ent	-497
ily	-498
▁little	-499
ian	-500
ved	-501
▁best	-502
▁rem	-503
▁<	-504
ult	-505
▁br	-506
▁somet	-507
ild	-508
ather	-509
ber	-510
▁ever	-511
ach	-512
ise	-513
▁des	-514
ci	-515
▁hor	-516
▁St	-517
we	-518
vel	-519
▁rec	-520
▁better	-521
wn	-522
ions	-523
du	-524
ual	-525
▁perfor	-526
rap	-527
▁should	-528
▁find	-529
!!	-530
be	-531
vers	-532
aking	-533
▁sl	-534
▁scene	-535
▁spe	-536
thing	-537
ought	-538
▁gr	-539
▁U	-540
▁feel	-541
▁cont	-542
ase	-543
▁There	-544
less	-545
▁pr	-546
▁att	-547
▁again	-548
▁scenes	-549
▁i	-550
ertain	-551
ia	-552
▁here	-553
▁still	-554
iend	-555
ath	-556
▁2	-557
lie	-558
▁cr	-559
ents	-560
▁ri	-561
▁min	-562
ting	-563
▁under	-564
ever	-565
ning	-566
erest	-567
me	-568
augh	-569
▁19	-570
ably	-571
fore	-572
▁kill	-573
▁such	-574
▁interest	-575
igh	-576
▁inc	-577
ree	-578
ren	-579
▁something	-580
▁happ	-581
ason	-582
les	-583
ating	-584
▁old	-585
ense	-586
arly	-587
▁these	-588
▁performan	-589
▁imp	-590
▁may	-591
▁cast	-592
ations	-593
alk	-594
▁fam	-595
ave	-596
▁lot	-597
▁point	-598
ail	-599
▁gi	-600
oth	-601
▁Al	-602
▁hum	-603
reen	-604
ru	-605
ater	-606
▁ap	-607
▁sur	-608
▁doesn	-609
the	-610
iv	-611
▁dec	-612
ying	-613
▁wom	-614
joy	-615
ror	-616
▁years	-617
ect	-618
▁those	-619
▁watching	-620
▁actors	-621
up	-622
▁gir	-623
▁sim	-624
▁res	-625
▁mus	-626
▁If	-627
▁ra	-628
▁didn	-629
▁gen	-630
▁che	-631
▁set	-632
▁enjoy	-633
▁start	-634
▁view	-635
ock	-636
▁cou	-637
▁fact	-638
▁makes	-639
ffect	-640
▁down	-641
▁funny	-642
old	-643
▁belie	-644
erson	-645
▁guy	-646
▁ob	-647
▁few	-648
ute	-649
edy	-650
▁ev	-651
▁comp	-652
oss	-653
az	-654
iss	-655
▁going	-656
der	-657
ale	-658
rigin	-659
oc	-660
▁fin	-661
▁same	-662
▁before	-663
▁actually	-664
▁tra	-665
li	-666
wh	-667
▁pret	-668
▁Jo	-669
▁origin	-670
▁long	-671
▁em	-672
▁got	-673
▁young	-674
▁supp	-675
▁while	-676
▁though	-677
▁dif	-678
--	-679
▁why	-680
▁now	-681
**	-682
ool	-683
ience	-684
ft	-685
▁produ	-686
▁own	-687
ub	-688
▁bit	-689
ript	-690
▁new	-691
▁ter	-692
▁director	-693
ible	-694
ction	-695
hen	-696
▁tri	-697
▁exce	-698
▁turn	-699
▁ke	-700
▁thought	-701
▁nothing	-702
▁sub	-703
▁big	-704
ons	-705
▁girl	-706
ince	-707
aut	-708
hy	-709
▁another	-710
ram	-711
iting	-712
▁rel	-713
▁quite	-714
ings	-715
▁comple	-716
cial	-717
▁sm	-718
rent	-719
▁seems	-720
onder	-721
▁inv	-722
▁around	-723
▁app	-724
ign	-725
▁friend	-726
▁pretty	-727
▁&	-728
▁effect	-729
▁original	-730
Th	-731
▁things	-732
▁need	-733
ically	-734
ways	-735
air	-736
▁world	-737
ched	-738
ween	-739
00	-740
▁right	-741
▁As	-742
▁screen	-743
▁enough	-744
ib	-745
pr	-746
arr	-747
ew	-748
▁script	-749
▁hard	-750
▁She	-751
ately	-752
most	-753
meric	-754
▁str	-755
ank	-756
ness	-757
▁between	-758
▁Br	-759
app	-760
▁appe	-761
ster	-762
▁acc	-763
rill	-764
▁take	-765
▁kid	-766
ead	-767
▁high	-768
▁ins	-769
▁kind	-770
▁far	-771
ention	-772
inem	-773
▁person	-774
▁sec	-775
▁laugh	-776
hes	-777
ced	-778
▁wonder	-779
▁must	-780
▁give	-781
▁series	-782
▁You	-783
▁es	-784
▁gets	-785
▁reason	-786
ward	-787
▁role	-788
utes	-789
▁horror	-790
▁op	-791
▁mom	-792
▁tell	-793
▁action	-794
ord	-795
▁always	-796
vious	-797
▁times	-798
▁child	-799
icul	-800
▁isn	-801
",	-802
ash	-803
aid	-804
▁ep	-805
▁bu	-806
▁least	-807
▁hel	-808
its	-809
▁sex	-810
▁read	-811
ouse	-812
▁whole	-813
▁interesting	-814
▁How	-815
ife	-816
▁saw	-817
▁put	-818
ased	-819
▁beaut	-820
▁come	-821
ody	-822
▁Americ	-823
here	-824
▁class	-825
▁music	-826
ully	-827
▁family	-828
▁main	-829
▁without	-830
▁They	-831
oot	-832
▁done	-833
▁expect	-834
▁comedy	-835
ines	-836
▁lead	-837
▁hand	-838
▁both	-839
▁cons	-840
▁rev	-841
▁Sh	-842
▁might	-843
▁almost	-844
▁ide	-845
arn	-846
▁diffe	-847
▁minutes	-848
▁shot	-849
hn	-850
▁aud	-851
▁cinem	-852
▁performance	-853
bably	-854
▁last	-855
▁expl	-856
▁cam	-857
▁begin	-858
xt	-859
▁anything	-860
gg	-861
▁complete	-862
▁sound	-863
▁book	-864
de	-865
uring	-866
▁inst	-867
ime	-868
▁cour	-869
though	-870
▁An	-871
rible	-872
son	-873
▁help	-874
▁care	-875
▁worth	-876
stand	-877
▁3	-878
▁co	-879
cially	-880
▁entertain	-881
ane	-882
ism	-883
ograp	-884
".	-885
▁art	-886
oney	-887
▁cle	-888
▁since	-889
▁el	-890
ov	-891
▁woman	-892
▁found	-893
ative	-894
▁away	-895
▁sequ	-896
atch	-897
ures	-898
ret	-899
istic	-900
isod	-901
als	-902
ition	-903
▁probably	-904
▁Fr	-905
ner	-906
▁sure	-907
era	-908
▁TV	-909
▁rather	-910
This	-911
▁What	-912
mend	-913
▁vers	-914
rist	-915
▁ext	-916
ange	-917
ialog	-918
▁run	-919
▁call	-920
pecially	-921
ros	-922
▁car	-923
oint	-924
▁episod	-925
ee	-926
▁making	-927
osed	-928
ady	-929
▁happen	-930
apt	-931
▁10	-932
▁abs	-933
▁dialog	-934
led	-935
▁worst	-936
umb	-937
ten	-938
▁lik	-939
▁course	-940
ling	-941
ither	-942
olly	-943
wood	-944
▁let	-945
▁bo	-946
ah	-947
▁John	-948
ER	-949
▁our	-950
▁comes	-951
ject	-952
ream	-953
▁Be	-954
▁beautif	-955
▁mean	-956
co	-957
."	-958
▁del	-959
▁add	-960
▁different	-961
▁So	-962
▁keep	-963
▁poor	-964
▁trying	-965
▁job	-966
ok	-967
▁less	-968
ollow	-969
▁believe	-970
▁That	-971
ney	-972
▁We	-973
▁rest	-974
▁goes	-975
VD	-976
aster	-977
▁each	-978
ments	-979
▁day	-980
ont	-981
ates	-982
▁mind	-983
blem	-984
alf	-985
▁sense	-986
▁place	-987
uck	-988
▁surpr	-989
fin	-990
▁bor	-991
▁anyone	-992
▁looks	-993
ex	-994
▁pol	-995
dd	-996
ph	-997
▁stand	-998
ingly	-999
ics	-1000
empt	-1001
iter	-1002
▁super	-1003
▁DVD	-1004
▁pres	-1005
hip	-1006
▁Not	-1007
lud	-1008
▁problem	-1009
▁played	-1010
▁yet	-1011
ommend	-1012
ortun	-1013
▁wasn	-1014
▁money	-1015
▁ending	-1016
sc	-1017
inc	-1018
▁ty	-1019
▁De	-1020
▁inter	-1021
ality	-1022
▁shows	-1023
ues	-1024
▁gl	-1025
arent	-1026
▁perfect	-1027
▁port	-1028
▁actor	-1029
It	-1030
▁ac	-1031
ray	-1032
ower	-1033
ks	-1034
iece	-1035
▁boy	-1036
aps	-1037
▁Bl	-1038
ope	-1039
way	-1040
ember	-1041
▁watched	-1042
▁TH	-1043
▁war	-1044
▁dram	-1045
▁plays	-1046
ann	-1047
▁cre	-1048
▁fav	-1049
▁conf	-1050
▁short	-1051
▁recommend	-1052
▁follow	-1053
▁audience	-1054
▁having	-1055
ilar	-1056
▁fan	-1057
▁All	-1058
▁creat	-1059
▁said	-1060
gether	-1061
▁together	-1062
llent	-1063
▁half	-1064
▁takes	-1065
atter	-1066
▁looking	-1067
ident	-1068
▁head	-1069
▁nice	-1070
▁himself	-1071
omb	-1072
▁effects	-1073
▁second	-1074
▁version	-1075
▁someone	-1076
▁Re	-1077
▁miss	-1078
ature	-1079
▁else	-1080
▁sit	-1081
▁When	-1082
▁true	-1083
land	-1084
▁review	-1085
ames	-1086
▁certain	-1087
ollywood	-1088
▁talk	-1089
ied	-1090
▁For	-1091
▁vis	-1092
▁understand	-1093
not	-1094
▁dep	-1095
▁fall	-1096
▁poss	-1097
▁imag	-1098
10	-1099
atic	-1100
cept	-1101
▁left	-1102
▁ed	-1103
sp	-1104
▁wife	-1105
▁special	-1106
▁especially	-1107
ited	-1108
▁father	-1109
ix	-1110
▁anim	-1111
ists	-1112
▁night	-1113
▁beautiful	-1114
▁entire	-1115
ply	-1116
day	-1117
▁rele	-1118
▁exc	-1119
ier	-1120
▁came	-1121
▁three	-1122
▁sing	-1123
▁obvious	-1124
▁Sc	-1125
▁idea	-1126
ared	-1127
....	-1128
ted	-1129
▁hour	-1130
ional	-1131
▁ph	-1132
▁ele	-1133
▁use	-1134
▁dist	-1135
▁year	-1136
sy	-1137
▁comm	-1138
ired	-1139
anc	-1140
ird	-1141
▁det	-1142
▁mur	-1143
▁seeing	-1144
▁American	-1145
▁friends	-1146
uff	-1147
▁excellent	-1148
▁mar	-1149
like	-1150
ides	-1151
▁invol	-1152
fully	-1153
0'	-1154
▁Un	-1155
▁ey	-1156
▁home	-1157
udget	-1158
▁My	-1159
▁Christ	-1160
upid	-1161
▁Cl	-1162
▁everything	-1163
▁later	-1164
io	-1165
▁mon	-1166
▁Ste	-1167
appoint	-1168
att	-1169
▁sk	-1170
ract	-1171
▁during	-1172
ised	-1173
▁men	-1174
ross	-1175
▁low	-1176
▁attempt	-1177
▁exp	-1178
▁fight	-1179
orn	-1180
▁once	-1181
▁lack	-1182
ork	-1183
▁everyone	-1184
▁disappoint	-1185
▁Se	-1186
▁sch	-1187
▁simply	-1188
ains	-1189
my	-1190
▁tal	-1191
ount	-1192
▁mem	-1193
▁unt	-1194
▁beh	-1195
▁sty	-1196
▁hist	-1197
▁tot	-1198
▁At	-1199
olute	-1200
▁completely	-1201
▁Ar	-1202
▁death	-1203
but	-1204
▁stupid	-1205
ets	-1206
iol	-1207
▁used	-1208
▁exper	-1209
ery	-1210
▁Mar	-1211
▁song	-1212
▁top	-1213
▁4	-1214
▁Sp	-1215
▁heart	-1216
▁human	-1217
▁supposed	-1218
▁mess	-1219
▁Rob	-1220
▁includ	-1221
▁One	-1222
▁Hollywood	-1223
▁pict	-1224
▁dra	-1225
▁defin	-1226
▁performances	-1227
▁wrong	-1228
ien	-1229
itten	-1230
▁serious	-1231
▁ass	-1232
▁tit	-1233
▁eas	-1234
▁rep	-1235
▁open	-1236
aring	-1237
▁fail	-1238
▁house	-1239
ott	-1240
elt	-1241
uth	-1242
▁stud	-1243
ography	-1244
▁try	-1245
▁either	-1246
▁sy	-1247
▁gener	-1248
▁ret	-1249
ins	-1250
orm	-1251
ideo	-1252
fic	-1253
amp	-1254
▁word	-1255
▁However	-1256
uly	-1257
▁loc	-1258
ove	-1259
▁conv	-1260
▁given	-1261
▁black	-1262
▁emot	-1263
▁exam	-1264
idd	-1265
/10	-1266
▁--	-1267
▁kids	-1268
▁becom	-1269
▁cra	-1270
oice	-1271
▁absolute	-1272
▁conc	-1273
▁small	-1274
▁camera	-1275
▁line	-1276
▁classic	-1277
▁bas	-1278
gr	-1279
oon	-1280
ider	-1281
▁boring	-1282
com	-1283
haps	-1284
▁ind	-1285
velop	-1286
▁particul	-1287
▁women	-1288
▁count	-1289
▁rom	-1290
▁Well	-1291
play	-1292
▁8	-1293
▁gra	-1294
ize	-1295
▁pain	-1296
▁production	-1297
▁light	-1298
ities	-1299
▁star	-1300
▁cop	-1301
▁until	-1302
itely	-1303
▁along	-1304
▁couple	-1305
▁sad	-1306
▁won	-1307
▁favor	-1308
fortun	-1309
▁sort	-1310
▁truly	-1311
iness	-1312
▁portray	-1313
▁hope	-1314
▁wa	-1315
▁moments	-1316
▁5	-1317
▁pass	-1318
▁cred	-1319
ote	-1320
▁viol	-1321
ike	-1322
ug	-1323
iant	-1324
ories	-1325
▁ple	-1326
sel	-1327
reak	-1328
▁amaz	-1329
▁instead	-1330
med	-1331
▁flick	-1332
▁remember	-1333
aj	-1334
▁7	-1335
▁No	-1336
▁awful	-1337
▁full	-1338
▁episode	-1339
▁hero	-1340
ming	-1341
▁school	-1342
ility	-1343
▁adv	-1344
▁humor	-1345
IN	-1346
ented	-1347
▁name	-1348
▁except	-1349
▁gives	-1350
▁doing	-1351
▁getting	-1352
▁budget	-1353
ric	-1354
▁itself	-1355
▁playing	-1356
ows	-1357
▁z	-1358
▁Le	-1359
ently	-1360
▁become	-1361
ony	-1362
que	-1363
▁wonderful	-1364
▁develop	-1365
imes	-1366
ison	-1367
ler	-1368
ister	-1369
▁form	-1370
▁On	-1371
▁dri	-1372
▁terrible	-1373
,"	-1374
▁often	-1375
▁Man	-1376
▁Will	-1377
olog	-1378
▁lines	-1379
ax	-1380
ton	-1381
▁stars	-1382
▁others	-1383
▁next	-1384
ized	-1385
▁face	-1386
▁felt	-1387
▁dialogue	-1388
▁however	-1389
▁reg	-1390
▁Don	-1391
▁slow	-1392
▁Mr	-1393
right	-1394
und	-1395
▁ann	-1396
▁THE	-1397
▁guess	-1398
▁liked	-1399
▁impress	-1400
▁video	-1401
▁piece	-1402
▁9	-1403
▁close	-1404
aughter	-1405
▁coll	-1406
▁Car	-1407
▁quest	-1408
ael	-1409
ibly	-1410
reme	-1411
▁live	-1412
▁cor	-1413
▁dead	-1414
▁early	-1415
▁fant	-1416
▁couldn	-1417
▁brill	-1418
ps	-1419
▁actress	-1420
▁case	-1421
▁.	-1422
line	-1423
ger	-1424
▁mother	-1425
ument	-1426
vis	-1427
▁Jack	-1428
▁power	-1429
tern	-1430
▁mention	-1431
illy	-1432
▁cut	-1433
▁went	-1434
▁waste	-1435
▁strong	-1436
▁against	-1437
▁children	-1438
used	-1439
ley	-1440
ccess	-1441
▁Even	-1442
▁ref	-1443
Wh	-1444
▁style	-1445
▁relations	-1446
ured	-1447
▁entertaining	-1448
▁dark	-1449
▁maybe	-1450
ular	-1451
▁New	-1452
▁mis	-1453
▁Dav	-1454
▁past	-1455
lish	-1456
▁title	-1457
ready	-1458
▁trans	-1459
▁beginning	-1460
ined	-1461
sh	-1462
oid	-1463
▁rid	-1464
ec	-1465
pite	-1466
▁After	-1467
▁absolutely	-1468
yn	-1469
ific	-1470
▁worse	-1471
unch	-1472
ichael	-1473
▁definitely	-1474
body	-1475
▁His	-1476
▁written	-1477
atur	-1478
In	-1479
oub	-1480
▁becomes	-1481
▁support	-1482
itch	-1483
▁side	-1484
by	-1485
iam	-1486
selves	-1487
rew	-1488
riend	-1489
fortunately	-1490
▁thrill	-1491
▁seemed	-1492
▁sw	-1493
▁Some	-1494
▁already	-1495
ts	-1496
▁picture	-1497
▁example	-1498
▁success	-1499
▁rent	-1500
▁brother	-1501
▁Mc	-1502
▁lives	-1503
▁cinema	-1504
▁certainly	-1505
▁pred	-1506
▁extreme	-1507
▁pop	-1508
▁To	-1509
▁Eng	-1510
▁adm	-1511
▁brilliant	-1512
▁sever	-1513
▁wanted	-1514
pped	-1515
▁fans	-1516
enn	-1517
▁fine	-1518
▁relationship	-1519
▁several	-1520
▁matter	-1521
osp	-1522
▁tou	-1523
▁direction	-1524
▁although	-1525
▁loved	-1526
het	-1527
vable	-1528
uc	-1529
▁blood	-1530
ried	-1531
▁drama	-1532
▁self	-1533
aken	-1534
ief	-1535
▁cent	-1536
).<	-1537
▁walk	-1538
▁writing	-1539
aul	-1540
chn	-1541
▁pur	-1542
▁wants	-1543
aving	-1544
▁lost	-1545
cess	-1546
▁tries	-1547
▁master	-1548
▁et	-1549
▁mag	-1550
uss	-1551
▁dem	-1552
▁town	-1553
▁works	-1554
▁annoy	-1555
sych	-1556
what	-1557
ages	-1558
ided	-1559
orge	-1560
ape	-1561
▁mor	-1562
oil	-1563
▁viewer	-1564
▁totally	-1565
▁guys	-1566
▁vill	-1567
amed	-1568
▁list	-1569
unk	-1570
▁av	-1571
▁son	-1572
▁occ	-1573
▁sat	-1574
gu	-1575
oke	-1576
▁num	-1577
▁able	-1578
▁quality	-1579
▁throughout	-1580
▁prov	-1581
▁deser	-1582
▁doc	-1583
▁par	-1584
▁enjoyed	-1585
▁called	-1586
▁daughter	-1587
▁capt	-1588
▁dr	-1589
▁novel	-1590
▁eff	-1591
ung	-1592
ination	-1593
▁comment	-1594
!<	-1595
where	-1596
▁based	-1597
▁history	-1598
▁med	-1599
OT	-1600
▁col	-1601
▁stuff	-1602
ms	-1603
use	-1604
▁Is	-1605
▁turns	-1606
▁killer	-1607
▁amazing	-1608
??	-1609
▁fem	-1610
▁Michael	-1611
▁val	-1612
▁starts	-1613
ern	-1614
▁fair	-1615
▁gave	-1616
▁Dan	-1617
ude	-1618
▁game	-1619
▁appear	-1620
▁genre	-1621
▁finally	-1622
▁Char	-1623
itive	-1624
▁bra	-1625
using	-1626
▁With	-1627
off	-1628
▁behind	-1629
▁favorite	-1630
▁deal	-1631
rib	-1632
▁learn	-1633
▁myster	-1634
▁inf	-1635
▁fig	-1636
▁themselves	-1637
▁cult	-1638
▁moment	-1639
▁hon	-1640
ished	-1641
19	-1642
▁situ	-1643
▁final	-1644
ches	-1645
to	-1646
rop	-1647
▁evil	-1648
▁contin	-1649
arth	-1650
▁late	-1651
▁import	-1652
ik	-1653
▁parts	-1654
▁today	-1655
rodu	-1656
na	-1657
ese	-1658
ajor	-1659
ards	-1660
oup	-1661
There	-1662
ox	-1663
▁etc	-1664
▁prom	-1665
▁stra	-1666
▁shoot	-1667
▁Then	-1668
▁crit	-1669
▁days	-1670
▁exact	-1671
ump	-1672
▁level	-1673
▁opp	-1674
▁typ	-1675
▁feat	-1676
▁While	-1677
astic	-1678
iet	-1679
akers	-1680
▁intell	-1681
▁ask	-1682
▁thinking	-1683
▁ir	-1684
▁Gr	-1685
▁consider	-1686
band	-1687
▁Brit	-1688
▁foot	-1689
▁stories	-1690
.)	-1691
▁myself	-1692
▁Also	-1693
iculous	-1694
▁deli	-1695
▁susp	-1696
▁feeling	-1697
▁pat	-1698
▁cost	-1699
▁psych	-1700
▁voice	-1701
▁musical	-1702
▁bus	-1703
▁Just	-1704
▁decent	-1705
cy	-1706
ene	-1707
▁incred	-1708
▁effort	-1709
dy	-1710
▁dream	-1711
▁roles	-1712
AN	-1713
▁sn	-1714
▁const	-1715
▁pick	-1716
If	-1717
▁soon	-1718
arb	-1719
▁horrible	-1720
▁says	-1721
urt	-1722
usband	-1723
ior	-1724
▁girls	-1725
▁Why	-1726
▁Her	-1727
▁eyes	-1728
▁heard	-1729
ient	-1730
▁mot	-1731
▁stop	-1732
▁murder	-1733
▁document	-1734
ising	-1735
▁killed	-1736
▁cinemat	-1737
okes	-1738
▁stru	-1739
▁perhaps	-1740
ives	-1741
antly	-1742
▁white	-1743
▁,	-1744
▁cannot	-1745
▁took	-1746
▁win	-1747
yp	-1748
▁God	-1749
antic	-1750
▁major	-1751
▁Of	-1752
els	-1753
▁happens	-1754
▁fore	-1755
▁Ge	-1756
ances	-1757
tra	-1758
▁weak	-1759
LL	-1760
ma	-1761
gs	-1762
uge	-1763
▁ridiculous	-1764
gan	-1765
ats	-1766
owing	-1767
▁predict	-1768
▁hilar	-1769
▁involved	-1770
▁directed	-1771
eth	-1772
ering	-1773
side	-1774
▁room	-1775
▁Robert	-1776
urb	-1777
▁husband	-1778
aves	-1779
ences	-1780
▁hit	-1781
▁type	-1782
▁techn	-1783
▁sle	-1784
▁opin	-1785
ey	-1786
▁May	-1787
AT	-1788
▁happened	-1789
▁Or	-1790
▁non	-1791
▁result	-1792
▁experience	-1793
how	-1794
▁prof	-1795
▁group	-1796
▁sol	-1797
ution	-1798
▁bring	-1799
▁chang	-1800
ters	-1801
▁hold	-1802
▁event	-1803
▁ago	-1804
▁break	-1805
▁violence	-1806
▁teen	-1807
▁told	-1808
▁tele	-1809
...<	-1810
▁extremely	-1811
mp	-1812
apan	-1813
▁fut	-1814
▁Every	-1815
▁leave	-1816
▁chance	-1817
▁crap	-1818
▁Ger	-1819
zy	-1820
▁wouldn	-1821
ique	-1822
▁age	-1823
▁swe	-1824
▁esc	-1825
▁200	-1826
▁move	-1827
ST	-1828
ky	-1829
▁cheap	-1830
▁6	-1831
▁Ed	-1832
▁Rich	-1833
aced	-1834
iddle	-1835
▁quick	-1836
▁hilarious	-1837
▁Pe	-1838
▁pos	-1839
▁stre	-1840
ots	-1841
ered	-1842
ys	-1843
▁career	-1844
▁looked	-1845
But	-1846
rest	-1847
▁ste	-1848
▁stay	-1849
▁James	-1850
▁Ind	-1851
ON	-1852
▁score	-1853
ational	-1854
▁Har	-1855
▁Pet	-1856
▁foc	-1857
ement	-1858
▁Paul	-1859
▁shock	-1860
ential	-1861
▁polit	-1862
wards	-1863
▁shown	-1864
▁Ke	-1865
▁desc	-1866
▁highly	-1867
▁coming	-1868
▁phot	-1869
▁disco	-1870
▁obviously	-1871
vision	-1872
▁apparent	-1873
▁sometimes	-1874
▁(19	-1875
▁similar	-1876
▁comed	-1877
▁number	-1878
▁simple	-1879
ovie	-1880
▁inde	-1881
▁body	-1882
▁annoying	-1883
mb	-1884
▁ant	-1885
▁English	-1886
AR	-1887
OR	-1888
nds	-1889
enty	-1890
▁dev	-1891
ground	-1892
itting	-1893
aged	-1894
▁ang	-1895
▁Japan	-1896
▁taken	-1897
And	-1898
lus	-1899
▁Now	-1900
▁opinion	-1901
▁yourself	-1902
▁particularly	-1903
aim	-1904
ili	-1905
nded	-1906
▁Osc	-1907
▁var	-1908
▁exactly	-1909
▁hours	-1910
▁strange	-1911
ury	-1912
iety	-1913
▁gun	-1914
rence	-1915
ino	-1916
▁unc	-1917
▁country	-1918
▁deep	-1919
▁ones	-1920
▁alone	-1921
▁treat	-1922
▁four	-1923
▁huge	-1924
▁return	-1925
▁writer	-1926
▁started	-1927
pping	-1928
ones	-1929
▁ill	-1930
▁known	-1931
▁ends	-1932
▁lar	-1933
▁finds	-1934
▁pay	-1935
rench	-1936
any	-1937
ina	-1938
▁possible	-1939
▁somewhat	-1940
▁cool	-1941
▁gore	-1942
bel	-1943
read	-1944
▁doub	-1945
▁change	-1946
▁released	-1947
▁whose	-1948
aces	-1949
▁moder	-1950
▁across	-1951
▁usual	-1952
▁season	-1953
▁cinematography	-1954
▁disc	-1955
▁prem	-1956
▁filmm	-1957
ator	-1958
▁War	-1959
cks	-1960
ubl	-1961
▁opening	-1962
▁Per	-1963
▁fa	-1964
outh	-1965
▁hot	-1966
▁shots	-1967
▁talent	-1968
▁subject	-1969
lt	-1970
rit	-1971
▁pot	-1972
▁zomb	-1973
unt	-1974
lo	-1975
ield	-1976
▁narr	-1977
▁jokes	-1978
▁episodes	-1979
▁David	-1980
▁forget	-1981
▁Ne	-1982
ball	-1983
▁saying	-1984
ians	-1985
▁reality	-1986
▁dest	-1987
▁police	-1988
ouble	-1989
▁disappointed	-1990
!"	-1991
▁pull	-1992
▁sent	-1993
wise	-1994
anger	-1995
▁single	-1996
▁fill	-1997
▁order	-1998
!!!!	-1999
▁build	-2000
▁Ad	-2001
▁female	-2002
▁produc	-2003
omp	-2004
mosp	-2005
▁wish	-2006
▁local	-2007
▁wee	-2008
▁living	-2009
▁rating	-2010
▁Tom	-2011
▁vict	-2012
▁sister	-2013
ral	-2014
ron	-2015
▁honest	-2016
▁running	-2017
▁talking	-2018
▁mist	-2019
▁near	-2020
▁prot	-2021
▁events	-2022
****	-2023
hetic	-2024
▁sign	-2025
ush	-2026
▁attention	-2027
▁touch	-2028
▁remind	-2029
▁atmosp	-2030
real	-2031
light	-2032
▁save	-2033
▁important	-2034
▁Do	-2035
▁El	-2036
▁turned	-2037
▁knew	-2038
▁plan	-2039
▁documentary	-2040
ald	-2041
orth	-2042
reci	-2043
▁songs	-2044
▁middle	-2045
▁William	-2046
asy	-2047
▁Je	-2048
▁ut	-2049
iel	-2050
head	-2051
lling	-2052
▁tells	-2053
▁British	-2054
oud	-2055
iction	-2056
▁suspense	-2057
▁despite	-2058
aker	-2059
ises	-2060
▁Dis	-2061
▁meet	-2062
▁parent	-2063
▁problems	-2064
ING	-2065
ctor	-2066
▁sequence	-2067
uri	-2068
rely	-2069
▁compl	-2070
▁detail	-2071
▁air	-2072
▁modern	-2073
ants	-2074
ital	-2075
▁inn	-2076
which	-2077
▁taking	-2078
▁subt	-2079
▁apart	-2080
▁knows	-2081
▁straight	-2082
▁intellig	-2083
▁Me	-2084
ires	-2085
otic	-2086
iod	-2087
▁team	-2088
▁respect	-2089
▁pri	-2090
▁aren	-2091
ole	-2092
▁equ	-2093
▁usually	-2094
eng	-2095
▁unf	-2096
ained	-2097
▁scary	-2098
▁Pr	-2099
▁ten	-2100
▁hell	-2101
▁hop	-2102
▁future	-2103
▁20	-2104
▁comic	-2105
▁contro	-2106
arch	-2107
▁due	-2108
EN	-2109
orable	-2110
▁silly	-2111
aterial	-2112
▁easily	-2113
▁romantic	-2114
▁Any	-2115
▁including	-2116
▁ve	-2117
▁mark	-2118
▁!	-2119
▁question	-2120
oe	-2121
che	-2122
▁among	-2123
oul	-2124
▁television	-2125
▁present	-2126
▁ca	-2127
▁adult	-2128
▁aspect	-2129
▁sets	-2130
▁supporting	-2131
yond	-2132
▁cart	-2133
▁words	-2134
▁appears	-2135
As	-2136
▁forg	-2137
ris	-2138
▁happy	-2139
▁fast	-2140
▁land	-2141
▁ear	-2142
▁York	-2143
▁dull	-2144
▁predictable	-2145
ubb	-2146
▁Tr	-2147
ltim	-2148
▁enjoyable	-2149
▁sexual	-2150
▁appreci	-2151
▁material	-2152
▁hands	-2153
▁Richard	-2154
go	-2155
▁clearly	-2156
▁needs	-2157
▁eng	-2158
▁prog	-2159
▁falls	-2160
who	-2161
form	-2162
▁mostly	-2163
rated	-2164
irector	-2165
oof	-2166
asc	-2167
back	-2168
▁box	-2169
▁creep	-2170
▁previous	-2171
gy	-2172
nding	-2173
▁Oscar	-2174
▁pleas	-2175
▁actual	-2176
ara	-2177
▁odd	-2178
▁sold	-2179
▁entertainment	-2180
iest	-2181
▁sum	-2182
▁clich	-2183
▁seriously	-2184
▁eye	-2185
▁none	-2186
▁check	-2187
▁giving	-2188
▁Am	-2189
▁ways	-2190
estern	-2191
▁sequel	-2192
ressed	-2193
▁points	-2194
▁herself	-2195
inal	-2196
▁German	-2197
▁spir	-2198
aught	-2199
▁reve	-2200
▁197	-2201
▁Although	-2202
ension	-2203
▁feels	-2204
attle	-2205
ublic	-2206
▁OK	-2207
▁victim	-2208
▁feature	-2209
▁surprised	-2210
▁Con	-2211
▁King	-2212
▁flaw	-2213
▁Ph	-2214
▁First	-2215
▁period	-2216
▁message	-2217
amb	-2218
▁198	-2219
▁Mor	-2220
▁secret	-2221
▁animation	-2222
▁above	-2223
▁adapt	-2224
▁setting	-2225
▁doubt	-2226
▁met	-2227
▁gang	-2228
▁haven	-2229
▁theme	-2230
▁exist	-2231
ining	-2232
▁camp	-2233
▁storyline	-2234
orry	-2235
track	-2236
▁slight	-2237
▁visual	-2238
work	-2239
▁clear	-2240
▁attack	-2241
▁ru	-2242
▁George	-2243
?<	-2244
▁Lee	-2245
▁bunch	-2246
▁Su	-2247
▁Ben	-2248
ficult	-2249
▁moving	-2250
▁elements	-2251
irt	-2252
▁hate	-2253
',	-2254
ggest	-2255
▁Sam	-2256
▁emb	-2257
iment	-2258
▁thriller	-2259
aby	-2260
wr	-2261
▁IM	-2262
arre	-2263
uses	-2264
▁theat	-2265
▁begins	-2266
▁viewers	-2267
▁comb	-2268
▁fell	-2269
atural	-2270
verage	-2271
▁nearly	-2272
▁superb	-2273
▁accept	-2274
▁upon	-2275
▁beyond	-2276
▁difficult	-2277
▁NOT	-2278
ously	-2279
▁spoil	-2280
▁within	-2281
▁decided	-2282
row	-2283
▁mil	-2284
▁means	-2285
▁release	-2286
▁suggest	-2287
ening	-2288
▁easy	-2289
OU	-2290
▁Sim	-2291
▁personal	-2292
!)	-2293
St	-2294
▁Oh	-2295
▁named	-2296
view	-2297
▁suff	-2298
oun	-2299
ices	-2300
▁showing	-2301
▁tried	-2302
▁comments	-2303
▁large	-2304
▁twist	-2305
▁tre	-2306
▁Pl	-2307
What	-2308
▁insp	-2309
▁soundtrack	-2310
aur	-2311
▁bro	-2312
▁five	-2313
▁overall	-2314
▁hear	-2315
▁working	-2316
▁clim	-2317
ett	-2318
▁wit	-2319
▁trag	-2320
sw	-2321
▁dru	-2322
▁figure	-2323
cl	-2324
omin	-2325
▁typical	-2326
▁fantastic	-2327
ival	-2328
▁kept	-2329
▁Disney	-2330
▁leads	-2331
▁theater	-2332
RE	-2333
▁tale	-2334
▁US	-2335
▁free	-2336
incing	-2337
ceed	-2338
▁truth	-2339
ially	-2340
▁using	-2341
IL	-2342
orld	-2343
▁stri	-2344
▁famous	-2345
Al	-2346
▁editing	-2347
▁viewing	-2348
!!!	-2349
▁mix	-2350
▁weird	-2351
▁particular	-2352
bs	-2353
atever	-2354
▁brought	-2355
af	-2356
▁atmosphere	-2357
mas	-2358
oor	-2359
lier	-2360
▁danc	-2361
▁sequences	-2362
hic	-2363
vent	-2364
▁surv	-2365
▁writ	-2366
▁introdu	-2367
▁parents	-2368
▁realistic	-2369
ai	-2370
ively	-2371
▁post	-2372
▁stage	-2373
let	-2374
▁business	-2375
▁wood	-2376
▁whether	-2377
▁Che	-2378
▁*	-2379
rific	-2380
▁America	-2381
lin	-2382
▁wait	-2383
▁French	-2384
dden	-2385
▁Jim	-2386
▁reviews	-2387
▁background	-2388
▁buy	-2389
▁red	-2390
▁norm	-2391
of	-2392
▁premise	-2393
▁obs	-2394
rey	-2395
▁und	-2396
▁lame	-2397
▁rese	-2398
▁Maybe	-2399
oose	-2400
▁Col	-2401
▁greatest	-2402
▁iss	-2403
▁expected	-2404
▁Unfortunately	-2405
▁Who	-2406
aling	-2407
▁city	-2408
▁speak	-2409
host	-2410
▁199	-2411
▁sil	-2412
▁filmed	-2413
▁believable	-2414
▁crime	-2415
▁Sm	-2416
▁cat	-2417
▁Most	-2418
?"	-2419
kay	-2420
▁Frank	-2421
▁became	-2422
▁design	-2423
▁strugg	-2424
▁basically	-2425
bers	-2426
▁soc	-2427
▁stun	-2428
▁Peter	-2429
▁front	-2430
avy	-2431
'.	-2432
▁exec	-2433
urther	-2434
▁utter	-2435
▁...	-2436
▁pure	-2437
verall	-2438
ES	-2439
ana	-2440
lfriend	-2441
▁nature	-2442
ged	-2443
ges	-2444
▁law	-2445
▁Ital	-2446
iences	-2447
▁avoid	-2448
▁poorly	-2449
▁sudden	-2450
▁appro	-2451
▁Japanese	-2452
esy	-2453
▁Dr	-2454
▁rock	-2455
▁meaning	-2456
lor	-2457
▁cur	-2458
spect	-2459
▁ultim	-2460
▁leaves	-2461
▁dumb	-2462
▁los	-2463
ogn	-2464
▁Yes	-2465
hood	-2466
▁apparently	-2467
▁average	-2468
ills	-2469
▁lim	-2470
▁needed	-2471
▁surprise	-2472
ye	-2473
▁tast	-2474
bor	-2475
▁mystery	-2476
lect	-2477
hys	-2478
icks	-2479
▁bar	-2480
▁die	-2481
▁ment	-2482
▁Gu	-2483
piece	-2484
more	-2485
▁sens	-2486
▁villain	-2487
▁situation	-2488
▁lots	-2489
irc	-2490
pend	-2491
▁Can	-2492
▁fire	-2493
▁male	-2494
▁credits	-2495
EA	-2496
set	-2497
▁bored	-2498
▁killing	-2499
▁project	-2500
anks	-2501
▁gone	-2502
▁third	-2503
▁er	-2504
▁forced	-2505
▁Scott	-2506
▁liter	-2507
▁meant	-2508
▁costum	-2509
▁realize	-2510
My	-2511
▁cap	-2512
▁Like	-2513
▁Night	-2514
▁advent	-2515
▁public	-2516
udd	-2517
uro	-2518
ager	-2519
▁earlier	-2520
▁emotional	-2521
▁memorable	-2522
▁Mart	-2523
▁id	-2524
▁wind	-2525
isf	-2526
time	-2527
▁inte	-2528
▁write	-2529
▁meets	-2530
erry	-2531
▁IMD	-2532
bert	-2533
ored	-2534
▁emotion	-2535
▁somehow	-2536
ppy	-2537
urd	-2538
chie	-2539
▁minute	-2540
inger	-2541
▁unique	-2542
▁interested	-2543
▁Tw	-2544
king	-2545
▁Tim	-2546
▁trad	-2547
▁older	-2548
▁From	-2549
▁footage	-2550
key	-2551
▁prop	-2552
▁keeps	-2553
▁screenplay	-2554
rif	-2555
▁Gra	-2556
▁resp	-2557
▁laughs	-2558
▁shame	-2559
▁reading	-2560
▁oper	-2561
▁concept	-2562
▁disturb	-2563
An	-2564
▁Its	-2565
▁Sch	-2566
▁possibly	-2567
fer	-2568
▁bel	-2569
▁Good	-2570
▁express	-2571
▁directors	-2572
▁unlike	-2573
por	-2574
▁dance	-2575
▁Joe	-2576
▁These	-2577
look	-2578
▁Par	-2579
acing	-2580
▁Wood	-2581
▁fasc	-2582
friend	-2583
▁badly	-2584
cessary	-2585
▁society	-2586
▁features	-2587
So	-2588
▁AN	-2589
cious	-2590
▁quickly	-2591
▁dam	-2592
▁mill	-2593
▁allow	-2594
▁conne	-2595
▁forward	-2596
▁Ex	-2597
well	-2598
▁yes	-2599
▁grand	-2600
▁popular	-2601
▁profess	-2602
▁brings	-2603
▁sick	-2604
▁worked	-2605
▁dramatic	-2606
uel	-2607
▁nor	-2608
iliar	-2609
angu	-2610
▁/>"	-2611
▁anyway	-2612
▁development	-2613
?)	-2614
acy	-2615
▁admit	-2616
▁imagine	-2617
▁perfectly	-2618
ula	-2619
▁romance	-2620
▁girlfriend	-2621
▁stere	-2622
▁writers	-2623
ived	-2624
allow	-2625
▁creepy	-2626
onic	-2627
▁rob	-2628
▁general	-2629
reed	-2630
zz	-2631
belie	-2632
▁directing	-2633
▁Mat	-2634
hel	-2635
▁By	-2636
Ch	-2637
ries	-2638
▁Jul	-2639
iny	-2640
ius	-2641
▁195	-2642
▁band	-2643
▁catch	-2644
erv	-2645
▁flat	-2646
arring	-2647
▁fails	-2648
▁potential	-2649
▁copy	-2650
▁clever	-2651
erm	-2652
▁Ang	-2653
▁mad	-2654
▁Jane	-2655
▁agree	-2656
▁sleep	-2657
▁eventually	-2658
ashing	-2659
▁towards	-2660
ague	-2661
over	-2662
▁imm	-2663
▁nud	-2664
▁create	-2665
▁joke	-2666
▁cheesy	-2667
ele	-2668
oman	-2669
▁Film	-2670
▁whom	-2671
▁cartoon	-2672
▁enc	-2673
▁Inst	-2674
▁occas	-2675
ases	-2676
▁cry	-2677
▁purp	-2678
▁prison	-2679
▁various	-2680
▁powerful	-2681
ero	-2682
▁repe	-2683
▁attract	-2684
ivid	-2685
▁amount	-2686
▁battle	-2687
▁please	-2688
▁recogn	-2689
▁Christmas	-2690
venge	-2691
vered	-2692
▁histor	-2693
▁incredibly	-2694
kn	-2695
een	-2696
▁193	-2697
▁Com	-2698
arl	-2699
rom	-2700
▁reasons	-2701
▁stereot	-2702
IS	-2703
aked	-2704
iver	-2705
▁bare	-2706
▁ideas	-2707
▁innoc	-2708
▁social	-2709
ivers	-2710
▁plain	-2711
action	-2712
▁leading	-2713
with	-2714
▁aut	-2715
▁invest	-2716
▁deserves	-2717
▁Fred	-2718
▁space	-2719
▁portrayed	-2720
▁:	-2721
arrass	-2722
▁ign	-2723
▁IMDb	-2724
▁claim	-2725
▁total	-2726
▁commun	-2727
▁manages	-2728
▁sweet	-2729
▁expecting	-2730
▁Em	-2731
mist	-2732
▁Des	-2733
▁spirit	-2734
▁casting	-2735
▁collect	-2736
▁positive	-2737
▁masterpiece	-2738
itty	-2739
▁est	-2740
vin	-2741
▁neg	-2742
▁fantasy	-2743
▁attempts	-2744
oles	-2745
▁step	-2746
▁revol	-2747
▁indeed	-2748
berg	-2749
▁jour	-2750
▁cover	-2751
▁Af	-2752
wart	-2753
▁sounds	-2754
ology	-2755
▁cond	-2756
▁rich	-2757
▁colle	-2758
▁plenty	-2759
▁embarrass	-2760
su	-2761
All	-2762
ips	-2763
▁phys	-2764
▁desper	-2765
")	-2766
▁30	-2767
▁ess	-2768
▁Here	-2769
▁acted	-2770
▁match	-2771
▁fairly	-2772
▁political	-2773
▁circ	-2774
▁missing	-2775
▁Watch	-2776
▁remake	-2777
▁Lu	-2778
elly	-2779
asher	-2780
cause	-2781
iller	-2782
▁Euro	-2783
▁achie	-2784
ford	-2785
itted	-2786
▁extra	-2787
ask	-2788
lex	-2789
pper	-2790
▁beauty	-2791
▁fighting	-2792
▁Bra	-2793
▁Aust	-2794
▁nudity	-2795
▁Stre	-2796
▁murd	-2797
medi	-2798
▁symp	-2799
ze	-2800
gest	-2801
unny	-2802
▁langu	-2803
▁talented	-2804
val	-2805
cent	-2806
You	-2807
▁af	-2808
▁hom	-2809
▁inside	-2810
▁outside	-2811
▁explain	-2812
▁further	-2813
andy	-2814
▁remark	-2815
▁familiar	-2816
iff	-2817
▁gay	-2818
▁note	-2819
▁married	-2820
▁recently	-2821
mon	-2822
▁crew	-2823
▁crazy	-2824
▁wasted	-2825
idden	-2826
▁relig	-2827
▁telling	-2828
▁filmmakers	-2829
▁dog	-2830
▁ident	-2831
▁mentioned	-2832
irl	-2833
agon	-2834
▁aff	-2835
iving	-2836
▁lady	-2837
cked	-2838
resh	-2839
▁era	-2840
▁hardly	-2841
▁scient	-2842
▁decides	-2843
ades	-2844
▁Gold	-2845
▁answ	-2846
▁destro	-2847
lusion	-2848
▁trail	-2849
▁bed	-2850
izing	-2851
▁delight	-2852
alth	-2853
▁clos	-2854
▁requ	-2855
▁Black	-2856
▁members	-2857
olf	-2858
▁Bill	-2859
▁depth	-2860
▁missed	-2861
OO	-2862
▁mid	-2863
iously	-2864
▁accident	-2865
bo	-2866
ding	-2867
ites	-2868
▁pace	-2869
▁common	-2870
▁scream	-2871
lying	-2872
▁hair	-2873
▁ended	-2874
▁sorry	-2875
▁caught	-2876
ened	-2877
▁Pat	-2878
▁draw	-2879
▁vamp	-2880
▁intri	-2881
▁unbelie	-2882
bl	-2883
uter	-2884
▁Ser	-2885
▁biz	-2886
▁mel	-2887
▁stat	-2888
▁explo	-2889
▁record	-2890
▁complex	-2891
par	-2892
▁("	-2893
room	-2894
▁cute	-2895
▁medi	-2896
▁flash	-2897
uted	-2898
▁Bar	-2899
▁uses	-2900
imp	-2901
▁Mary	-2902
▁sees	-2903
▁immedi	-2904
▁whatever	-2905
▁funn	-2906
ishing	-2907
ossible	-2908
▁waiting	-2909
▁convincing	-2910
aine	-2911
cher	-2912
come	-2913
▁rece	-2914
▁World	-2915
▁impro	-2916
ictor	-2917
▁credit	-2918
▁hy	-2919
▁ble	-2920
rect	-2921
▁mod	-2922
▁porn	-2923
▁Other	-2924
▁spent	-2925
▁wrote	-2926
▁created	-2927
▁slightly	-2928
oop	-2929
ibility	-2930
▁rap	-2931
▁brief	-2932
▁entirely	-2933
▁Star	-2934
▁tension	-2935
ieces	-2936
▁solid	-2937
▁Europe	-2938
▁monster	-2939
vil	-2940
▁Mac	-2941
▁idi	-2942
▁rate	-2943
itation	-2944
▁former	-2945
▁control	-2946
ha	-2947
ette	-2948
▁amb	-2949
acher	-2950
alt	-2951
lict	-2952
uine	-2953
▁pointless	-2954
rage	-2955
▁moves	-2956
iced	-2957
▁wall	-2958
▁stick	-2959
▁laughing	-2960
con	-2961
oph	-2962
▁Ir	-2963
▁color	-2964
▁ghost	-2965
▁offic	-2966
inating	-2967
▁choice	-2968
VER	-2969
▁15	-2970
vern	-2971
▁Mad	-2972
▁ine	-2973
eless	-2974
esome	-2975
▁successful	-2976
lu	-2977
▁Act	-2978
aging	-2979
▁mass	-2980
▁Great	-2981
▁water	-2982
▁Red	-2983
▁Tra	-2984
▁Instead	-2985
ective	-2986
ED	-2987
emy	-2988
men	-2989
▁196	-2990
▁escape	-2991
▁satisf	-2992
ashion	-2993
isingly	-2994
▁accent	-2995
gend	-2996
▁Pro	-2997
▁rad	-2998
while	-2999
▁value	-3000
OW	-3001
▁boys	-3002
▁portrayal	-3003
str	-3004
▁Italian	-3005
▁following	-3006
▁appreciate	-3007
▁intelligent	-3008
▁subtle	-3009
standing	-3010
▁slasher	-3011
▁unfortunately	-3012
ilt	-3013
iers	-3014
rian	-3015
▁jud	-3016
inary	-3017
uthor	-3018
▁effective	-3019
▁kills	-3020
▁recent	-3021
▁travel	-3022
▁biggest	-3023
▁exciting	-3024
▁wild	-3025
boy	-3026
▁arri	-3027
▁jump	-3028
cast	-3029
▁Mon	-3030
▁spend	-3031
▁store	-3032
▁zombie	-3033
▁genuine	-3034
▁mach	-3035
▁brain	-3036
▁breat	-3037
▁compe	-3038
▁forgot	-3039
▁amusing	-3040
▁concern	-3041
▁incredible	-3042
▁follows	-3043
▁En	-3044
ging	-3045
▁Bat	-3046
▁Bur	-3047
▁died	-3048
aven	-3049
▁Big	-3050
▁focus	-3051
▁stereotyp	-3052
000	-3053
oes	-3054
ateur	-3055
itary	-3056
▁critic	-3057
cing	-3058
▁Hor	-3059
▁Dead	-3060
▁opportun	-3061
▁impressive	-3062
▁fit	-3063
mistry	-3064
▁dancing	-3065
idered	-3066
▁books	-3067
▁singing	-3068
▁younger	-3069
PO	-3070
▁contr	-3071
▁repres	-3072
▁II	-3073
▁glad	-3074
▁rede	-3075
▁earth	-3076
▁language	-3077
this	-3078
▁showed	-3079
▁week	-3080
▁produced	-3081
▁Lou	-3082
ribly	-3083
▁ball	-3084
▁brut	-3085
▁soul	-3086
▁bizarre	-3087
▁exception	-3088
bb	-3089
One	-3090
even	-3091
▁fol	-3092
▁tort	-3093
▁Afric	-3094
▁weren	-3095
▁depict	-3096
▁suspect	-3097
rel	-3098
▁Park	-3099
▁decide	-3100
▁situations	-3101
TH	-3102
▁crim	-3103
▁trouble	-3104
▁compared	-3105
How	-3106
▁Victor	-3107
une	-3108
▁Cor	-3109
▁Van	-3110
▁House	-3111
▁otherwise	-3112
ener	-3113
▁filled	-3114
▁changed	-3115
▁continu	-3116
▁luck	-3117
▁ground	-3118
▁suddenly	-3119
arily	-3120
▁danger	-3121
▁chemistry	-3122
▁violent	-3123
▁considered	-3124
▁trip	-3125
▁longer	-3126
▁manner	-3127
▁purpose	-3128
▁revenge	-3129
no	-3130
▁Rock	-3131
▁Tony	-3132
▁garb	-3133
▁runs	-3134
▁magic	-3135
▁pract	-3136
▁western	-3137
▁questions	-3138
OM	-3139
irty	-3140
ondon	-3141
▁unin	-3142
▁disturbing	-3143
▁Cra	-3144
ified	-3145
sters	-3146
▁spot	-3147
eg	-3148
ares	-3149
iles	-3150
▁fear	-3151
▁carry	-3152
fort	-3153
▁anti	-3154
▁failed	-3155
▁studio	-3156
▁amateur	-3157
owers	-3158
▁doll	-3159
▁bother	-3160
▁conclusion	-3161
plic	-3162
▁Smith	-3163
▁compet	-3164
▁awesome	-3165
▁fat	-3166
ization	-3167
▁barely	-3168
▁favour	-3169
▁mer	-3170
annel	-3171
▁suit	-3172
▁trash	-3173
▁appeal	-3174
gl	-3175
appe	-3176
iding	-3177
▁baby	-3178
▁tough	-3179
▁audiences	-3180
fi	-3181
ales	-3182
▁bull	-3183
▁taste	-3184
▁unless	-3185
sequ	-3186
▁producers	-3187
aper	-3188
▁Mel	-3189
▁suc	-3190
▁shooting	-3191
LE	-3192
▁likes	-3193
▁redeem	-3194
known	-3195
▁party	-3196
▁doctor	-3197
▁values	-3198
min	-3199
▁Stan	-3200
▁program	-3201
aus	-3202
rupt	-3203
thur	-3204
ength	-3205
opher	-3206
▁assum	-3207
▁affect	-3208
▁office	-3209
▁regard	-3210
▁impossible	-3211
▁194	-3212
▁mood	-3213
▁faith	-3214
▁involving	-3215
inn	-3216
ille	-3217
▁sav	-3218
▁pers	-3219
▁Movie	-3220
▁state	-3221
▁images	-3222
▁natural	-3223
***	-3224
▁fake	-3225
▁roll	-3226
▁track	-3227
▁squ	-3228
▁disg	-3229
▁ability	-3230
▁author	-3231
▁culture	-3232
▁product	-3233
▁animated	-3234
▁Russ	-3235
▁heavy	-3236
▁London	-3237
▁bought	-3238
▁rare	-3239
ensive	-3240
▁charming	-3241
▁Alex	-3242
▁Best	-3243
▁Super	-3244
▁humour	-3245
▁college	-3246
formation	-3247
▁impression	-3248
war	-3249
▁Ant	-3250
▁hang	-3251
lessly	-3252
▁stunning	-3253
▁Ann	-3254
riage	-3255
▁neigh	-3256
▁company	-3257
▁succeed	-3258
▁appearance	-3259
".<	-3260
▁90	-3261
▁ST	-3262
iring	-3263
▁cold	-3264
▁rand	-3265
▁garbage	-3266
anna	-3267
▁City	-3268
▁loud	-3269
▁computer	-3270
▁immediately	-3271
uk	-3272
mark	-3273
night	-3274
▁unex	-3275
▁adventure	-3276
▁OF	-3277
izes	-3278
ottom	-3279
▁clot	-3280
▁door	-3281
▁test	-3282
▁basic	-3283
▁leaving	-3284
▁refe	-3285
▁street	-3286
▁pathetic	-3287
▁Love	-3288
▁cross	-3289
iche	-3290
urch	-3291
▁Let	-3292
▁adaptation	-3293
rid	-3294
▁sci	-3295
▁insult	-3296
▁ultimately	-3297
Don	-3298
▁Ro	-3299
▁beat	-3300
idence	-3301
▁minor	-3302
movie	-3303
▁contri	-3304
▁obsess	-3305
▁reveal	-3306
▁utterly	-3307
▁kick	-3308
▁fashion	-3309
vey	-3310
rend	-3311
vert	-3312
▁Ham	-3313
▁Way	-3314
round	-3315
▁Perhaps	-3316
▁investig	-3317
cted	-3318
▁spect	-3319
▁random	-3320
reg	-3321
▁numb	-3322
▁Earth	-3323
▁Stewart	-3324
▁tradition	-3325
that	-3326
▁100	-3327
▁Luc	-3328
ressing	-3329
▁govern	-3330
aire	-3331
stem	-3332
▁Boy	-3333
▁uns	-3334
▁terms	-3335
▁climax	-3336
▁genius	-3337
▁terror	-3338
ological	-3339
▁somewhere	-3340
▁Bro	-3341
▁Hen	-3342
▁occur	-3343
▁thinks	-3344
AS	-3345
ify	-3346
ode	-3347
▁pack	-3348
▁deliver	-3349
▁neither	-3350
▁approach	-3351
▁lab	-3352
▁mult	-3353
▁absurd	-3354
On	-3355
ILER	-3356
▁Mur	-3357
▁dad	-3358
▁seg	-3359
▁grap	-3360
▁considering	-3361
▁pu	-3362
unting	-3363
▁Steve	-3364
▁Another	-3365
▁sitting	-3366
▁starring	-3367
▁god	-3368
house	-3369
▁road	-3370
▁Harry	-3371
▁Indian	-3372
anda	-3373
▁accur	-3374
▁cause	-3375
ena	-3376
you	-3377
iven	-3378
▁search	-3379
▁standard	-3380
▁dig	-3381
▁pun	-3382
▁Sure	-3383
POILER	-3384
▁indust	-3385
▁def	-3386
▁lau	-3387
ropri	-3388
reaking	-3389
▁touching	-3390
▁defe	-3391
itions	-3392
▁added	-3393
▁fresh	-3394
▁notice	-3395
yle	-3396
elling	-3397
▁managed	-3398
▁unbelievable	-3399
ID	-3400
aff	-3401
▁Bru	-3402
uster	-3403
▁repl	-3404
▁fully	-3405
▁likely	-3406
▁generally	-3407
mm	-3408
For	-3409
▁charm	-3410
▁normal	-3411
▁Director	-3412
▁terrific	-3413
▁Christian	-3414
uts	-3415
▁gem	-3416
▁Harr	-3417
▁tone	-3418
▁themes	-3419
▁comedies	-3420
▁narrative	-3421
vir	-3422
▁Ye	-3423
▁force	-3424
▁twists	-3425
▁nowhere	-3426
▁remains	-3427
OV	-3428
▁curi	-3429
awn	-3430
▁Jeff	-3431
making	-3432
▁drive	-3433
▁month	-3434
▁serial	-3435
▁threat	-3436
▁mistake	-3437
▁conflict	-3438
▁constantly	-3439
▁six	-3440
▁Kelly	-3441
▁laughable	-3442
aining	-3443
played	-3444
▁presence	-3445
▁literally	-3446
BC	-3447
ands	-3448
▁gag	-3449
esides	-3450
ailable	-3451
▁issues	-3452
▁addition	-3453
▁system	-3454
▁intrigu	-3455
▁zombies	-3456
AD	-3457
cer	-3458
riff	-3459
▁Bel	-3460
▁element	-3461
▁respons	-3462
▁presented	-3463
▁beautifully	-3464
lyn	-3465
rag	-3466
▁dro	-3467
oughly	-3468
▁Sw	-3469
orts	-3470
ring	-3471
anted	-3472
▁sexy	-3473
▁finish	-3474
▁Charlie	-3475
▁scenery	-3476
▁costumes	-3477
▁jo	-3478
irth	-3479
▁boss	-3480
▁offe	-3481
▁military	-3482
▁pictures	-3483
▁interview	-3484
▁Den	-3485
▁cho	-3486
▁train	-3487
▁equally	-3488
▁painful	-3489
▁witness	-3490
▁Fe	-3491
lease	-3492
ability	-3493
estival	-3494
▁People	-3495
▁individ	-3496
▁cinematic	-3497
▁surprisingly	-3498
▁disappointing	-3499
anic	-3500
part	-3501
▁sto	-3502
▁prep	-3503
▁drawn	-3504
▁throw	-3505
▁places	-3506
▁thrown	-3507
▁details	-3508
▁Str	-3509
ached	-3510
ision	-3511
▁bomb	-3512
icated	-3513
rences	-3514
▁artist	-3515
▁marriage	-3516
▁flashback	-3517
▁disappointment	-3518
▁ur	-3519
▁Adam	-3520
▁offer	-3521
▁smart	-3522
▁makers	-3523
▁science	-3524
▁Cr	-3525
▁Miss	-3526
▁alive	-3527
▁excuse	-3528
▁Ber	-3529
▁Yet	-3530
▁dreams	-3531
▁aspects	-3532
▁knowing	-3533
cle	-3534
▁Cal	-3535
▁leg	-3536
▁Dick	-3537
▁innocent	-3538
▁80'	-3539
▁log	-3540
itude	-3541
▁Paris	-3542
▁chall	-3543
▁stands	-3544
▁expectations	-3545
IT	-3546
ribe	-3547
▁10.	-3548
▁okay	-3549
▁escap	-3550
▁animals	-3551
▁destroy	-3552
▁suppose	-3553
▁feelings	-3554
▁photography	-3555
He	-3556
▁Ab	-3557
face	-3558
▁har	-3559
▁influ	-3560
▁slowly	-3561
▁outstanding	-3562
▁18	-3563
▁key	-3564
▁date	-3565
▁Still	-3566
▁behav	-3567
▁boyfriend	-3568
▁recommended	-3569
arsh	-3570
athy	-3571
▁spec	-3572
▁hoping	-3573
▁describ	-3574
▁discuss	-3575
aton	-3576
just	-3577
▁Pal	-3578
▁spl	-3579
▁subst	-3580
▁medioc	-3581
ica	-3582
▁Very	-3583
▁plus	-3584
▁island	-3585
▁journey	-3586
▁opportunity	-3587
aint	-3588
▁Sci	-3589
▁burn	-3590
▁init	-3591
▁drunk	-3592
▁affair	-3593
▁century	-3594
ini	-3595
icide	-3596
illing	-3597
▁Where	-3598
▁demon	-3599
▁million	-3600
▁historical	-3601
▁Tre	-3602
▁compar	-3603
▁Because	-3604
▁filming	-3605
▁Ag	-3606
▁Bob	-3607
▁Ray	-3608
▁Only	-3609
▁names	-3610
▁breath	-3611
anch	-3612
▁Dou	-3613
▁High	-3614
▁soft	-3615
▁Though	-3616
▁commer	-3617
▁lovely	-3618
▁proper	-3619
CH	-3620
ancy	-3621
▁mir	-3622
▁ener	-3623
▁walking	-3624
▁contains	-3625
▁emotions	-3626
▁intended	-3627
▁surround	-3628
▁photograp	-3629
▁mysterious	-3630
hol	-3631
itz	-3632
asty	-3633
▁Allen	-3634
▁intern	-3635
▁happening	-3636
▁individual	-3637
ploy	-3638
▁ast	-3639
elebr	-3640
under	-3641
▁passion	-3642
▁protagon	-3643
▁soldiers	-3644
ss	-3645
yl	-3646
▁Fl	-3647
▁Go	-3648
ghed	-3649
icip	-3650
▁lif	-3651
▁Sand	-3652
▁Angel	-3653
▁CG	-3654
▁din	-3655
▁pil	-3656
heart	-3657
oking	-3658
▁drug	-3659
▁puts	-3660
▁South	-3661
▁sight	-3662
▁fascinating	-3663
IE	-3664
uit	-3665
appy	-3666
inct	-3667
▁fright	-3668
▁changes	-3669
▁intense	-3670
▁government	-3671
▁80	-3672
uous	-3673
▁****	-3674
▁acts	-3675
▁tired	-3676
▁likable	-3677
pro	-3678
▁dies	-3679
▁moral	-3680
▁include	-3681
▁compelling	-3682
gue	-3683
ham	-3684
▁dim	-3685
▁loves	-3686
▁length	-3687
▁available	-3688
ural	-3689
▁Jes	-3690
▁Part	-3691
▁fool	-3692
▁qual	-3693
▁silent	-3694
▁building	-3695
▁difference	-3696
lla	-3697
▁Bo	-3698
ples	-3699
▁West	-3700
▁ride	-3701
budget	-3702
▁object	-3703
entially	-3704
mar	-3705
exic	-3706
ishes	-3707
▁Hard	-3708
▁serv	-3709
istent	-3710
▁pieces	-3711
▁lad	-3712
anced	-3713
table	-3714
▁magn	-3715
▁noir	-3716
IG	-3717
▁warn	-3718
tend	-3719
▁mat	-3720
ledge	-3721
▁hasn	-3722
▁teacher	-3723
▁developed	-3724
Sh	-3725
ki	-3726
ta	-3727
down	-3728
▁Rog	-3729
orter	-3730
▁base	-3731
▁loose	-3732
▁mouth	-3733
▁share	-3734
▁fellow	-3735
▁victims	-3736
▁appeared	-3737
abb	-3738
ken	-3739
▁Mus	-3740
▁edge	-3741
▁thor	-3742
▁legend	-3743
▁critics	-3744
▁IS	-3745
gged	-3746
▁ord	-3747
ospital	-3748
▁Chris	-3749
▁Story	-3750
▁drink	-3751
▁lacks	-3752
orgeous	-3753
▁adults	-3754
▁detective	-3755
onna	-3756
▁Sec	-3757
▁Young	-3758
azz	-3759
▁40	-3760
pret	-3761
text	-3762
ustr	-3763
▁Two	-3764
▁damn	-3765
▁celebr	-3766
ipp	-3767
see	-3768
▁Tar	-3769
▁ham	-3770
ander	-3771
▁melod	-3772
▁thank	-3773
▁negative	-3774
▁Christopher	-3775
▁50	-3776
▁Fin	-3777
Not	-3778
▁Co	-3779
raid	-3780
▁helps	-3781
▁numbers	-3782
▁confused	-3783
▁relationships	-3784
▁Dark	-3785
▁Canad	-3786
▁flaws	-3787
▁content	-3788
▁trailer	-3789
erous	-3790
▁motion	-3791
▁Nothing	-3792
▁commercial	-3793
▁Henry	-3794
▁Jones	-3795
▁Charles	-3796
▁current	-3797
▁student	-3798
kin	-3799
▁joy	-3800
▁ship	-3801
▁unne	-3802
▁Bruce	-3803
▁image	-3804
▁proves	-3805
▁disgust	-3806
ift	-3807
That	-3808
▁Pol	-3809
ushed	-3810
pected	-3811
▁WW	-3812
▁cell	-3813
▁prim	-3814
▁virt	-3815
akespe	-3816
▁clean	-3817
▁latter	-3818
▁followed	-3819
▁confusing	-3820
▁standards	-3821
▁wondering	-3822
omething	-3823
▁laughed	-3824
▁delivers	-3825
ency	-3826
▁Mark	-3827
▁dubb	-3828
▁Mexic	-3829
▁dread	-3830
▁lived	-3831
▁merely	-3832
▁falling	-3833
▁lighting	-3834
▁childhood	-3835
▁imagination	-3836
?!	-3837
We	-3838
gly	-3839
ront	-3840
▁Jean	-3841
▁unus	-3842
▁ahead	-3843
▁fault	-3844
▁irrit	-3845
▁quiet	-3846
▁provides	-3847
▁students	-3848
▁mart	-3849
▁flicks	-3850
▁forever	-3851
▁discover	-3852
▁gorgeous	-3853
▁impressed	-3854
oned	-3855
▁rout	-3856
▁wise	-3857
▁Green	-3858
▁multi	-3859
▁naked	-3860
▁remote	-3861
▁tragedy	-3862
eal	-3863
life	-3864
▁Bas	-3865
▁Nor	-3866
▁den	-3867
writer	-3868
▁lover	-3869
▁oppos	-3870
▁impact	-3871
▁mediocre	-3872
▁Gl	-3873
▁Lo	-3874
▁Mag	-3875
▁div	-3876
field	-3877
▁hide	-3878
▁youth	-3879
ilities	-3880
▁offers	-3881
▁brothers	-3882
▁hig	-3883
asure	-3884
herent	-3885
▁Batman	-3886
▁Steven	-3887
When	-3888
dered	-3889
▁host	-3890
pendent	-3891
▁Martin	-3892
▁correct	-3893
asing	-3894
▁paid	-3895
▁Davis	-3896
▁alien	-3897
▁mainly	-3898
▁tragic	-3899
▁formula	-3900
▁becoming	-3901
▁highlight	-3902
▁thoroughly	-3903
inese	-3904
▁Sant	-3905
▁gold	-3906
▁chase	-3907
▁central	-3908
▁attractive	-3909
/2	-3910
cra	-3911
ops	-3912
she	-3913
itor	-3914
phen	-3915
▁See	-3916
▁rip	-3917
▁answer	-3918
▁murders	-3919
▁funniest	-3920
.,	-3921
▁oh	-3922
▁fort	-3923
▁folks	-3924
▁nobody	-3925
▁achieve	-3926
ffe	-3927
▁Austral	-3928
▁disappe	-3929
abl	-3930
now	-3931
osh	-3932
▁fac	-3933
▁Carl	-3934
▁rated	-3935
▁planet	-3936
▁justice	-3937
▁creative	-3938
▁disaster	-3939
Jo	-3940
roc	-3941
ste	-3942
rama	-3943
▁Bad	-3944
.....	-3945
At	-3946
LY	-3947
▁Day	-3948
aries	-3949
▁rape	-3950
▁Jerry	-3951
▁fiction	-3952
▁hospital	-3953
hero	-3954
▁adds	-3955
▁reach	-3956
▁stuck	-3957
▁Shakespe	-3958
▁producer	-3959
▁reminded	-3960
lled	-3961
mbol	-3962
▁Hit	-3963
▁Hol	-3964
▁nons	-3965
▁double	-3966
▁surely	-3967
▁spectac	-3968
good	-3969
▁sun	-3970
▁Phil	-3971
▁held	-3972
▁willing	-3973
▁Williams	-3974
icious	-3975
▁twice	-3976
▁afraid	-3977
▁contem	-3978
▁process	-3979
▁honestly	-3980
▁occasion	-3981
▁actresses	-3982
▁seemingly	-3983
To	-3984
azy	-3985
iday	-3986
board	-3987
▁Billy	-3988
▁knock	-3989
Overall	-3990
▁forgotten	-3991
▁bi	-3992
ooks	-3993
rough	-3994
▁blond	-3995
▁eight	-3996
▁market	-3997
▁rented	-3998
▁apartment	-3999
▁information	-4000
AL	-4001
hor	-4002
agger	-4003
irgin	-4004
▁asks	-4005
▁putting	-4006
▁industry	-4007
oted	-4008
▁AND	-4009
▁ver	-4010
▁blind	-4011
▁ready	-4012
▁describe	-4013
▁Americans	-4014
▁unw	-4015
▁resc	-4016
▁Little	-4017
▁Jackson	-4018
▁Ms	-4019
alled	-4020
anish	-4021
▁race	-4022
▁aside	-4023
▁round	-4024
entious	-4025
▁anymore	-4026
▁seconds	-4027
▁personality	-4028
ium	-4029
ament	-4030
▁wide	-4031
▁giant	-4032
▁streng	-4033
▁Despite	-4034
▁Overall	-4035
▁convers	-4036
AY	-4037
Be	-4038
oos	-4039
aches	-4040
▁faces	-4041
▁sadly	-4042
▁location	-4043
Now	-4044
zan	-4045
▁aim	-4046
▁eat	-4047
illed	-4048
▁area	-4049
▁turning	-4050
▁redeeming	-4051
rog	-4052
vol	-4053
▁drag	-4054
▁lose	-4055
▁thin	-4056
▁opera	-4057
▁clothes	-4058
▁relative	-4059
▁filmmaker	-4060
▁professional	-4061
IC	-4062
▁Spe	-4063
▁news	-4064
▁onto	-4065
▁mount	-4066
▁nasty	-4067
▁desert	-4068
entional	-4069
▁finding	-4070
▁collection	-4071
gar	-4072
mes	-4073
▁ge	-4074
▁Once	-4075
▁path	-4076
▁bright	-4077
▁explan	-4078
▁helped	-4079
iac	-4080
ube	-4081
soever	-4082
athetic	-4083
▁Arthur	-4084
▁member	-4085
▁allowed	-4086
▁underst	-4087
▁struggle	-4088
ios	-4089
ita	-4090
▁Wal	-4091
▁rac	-4092
▁accom	-4093
▁bottom	-4094
▁symbol	-4095
▁unreal	-4096
▁shouldn	-4097
▁necessary	-4098
▁unexpected	-4099
ech	-4100
▁12	-4101
▁70	-4102
eman	-4103
film	-4104
▁gri	-4105
▁led	-4106
aylor	-4107
▁broad	-4108
▁moved	-4109
▁picked	-4110
▁station	-4111
▁superior	-4112
▁Shakespeare	-4113
.'	-4114
win	-4115
▁Fox	-4116
▁Lyn	-4117
▁Alan	-4118
▁grow	-4119
▁trust	-4120
▁thanks	-4121
▁favourite	-4122
▁whatsoever	-4123
AC	-4124
Bl	-4125
leep	-4126
arded	-4127
▁wooden	-4128
▁inspired	-4129
glas	-4130
mare	-4131
year	-4132
▁warm	-4133
▁Blood	-4134
▁began	-4135
▁includes	-4136
▁scientist	-4137
AM	-4138
aded	-4139
requ	-4140
uman	-4141
▁pen	-4142
▁bank	-4143
▁hotel	-4144
ropriate	-4145
▁shocking	-4146
▁ON	-4147
ache	-4148
rick	-4149
▁Jon	-4150
▁Sar	-4151
▁tar	-4152
usion	-4153
▁Many	-4154
▁angry	-4155
▁drugs	-4156
▁Chinese	-4157
▁insight	-4158
▁artistic	-4159
ka	-4160
sey	-4161
ifer	-4162
▁Both	-4163
▁block	-4164
▁deeply	-4165
▁supposedly	-4166
▁intelligence	-4167
ateg	-4168
▁70'	-4169
▁buff	-4170
▁actions	-4171
▁everybody	-4172
ek	-4173
abr	-4174
erk	-4175
ras	-4176
▁na	-4177
arry	-4178
rors	-4179
▁Sin	-4180
▁Brian	-4181
pective	-4182
▁encoun	-4183
▁technical	-4184
ET	-4185
abe	-4186
owd	-4187
osen	-4188
▁Win	-4189
▁More	-4190
▁depart	-4191
▁repeated	-4192
▁wonderfully	-4193
afe	-4194
▁tem	-4195
▁Walk	-4196
▁club	-4197
▁Never	-4198
▁remem	-4199
▁energy	-4200
▁resemb	-4201
▁vision	-4202
▁physical	-4203
▁friendship	-4204
▁Edd	-4205
▁Too	-4206
▁hint	-4207
Americ	-4208
▁Their	-4209
▁comedic	-4210
▁realized	-4211
▁introduced	-4212
▁McC	-4213
▁hat	-4214
ovies	-4215
▁sour	-4216
▁weap	-4217
edding	-4218
▁tears	-4219
▁provide	-4220
▁vampire	-4221
mi	-4222
aud	-4223
Well	-4224
ading	-4225
ashed	-4226
▁phone	-4227
▁continue	-4228
▁strength	-4229
▁commentary	-4230
▁Ac	-4231
wolf	-4232
▁sell	-4233
▁react	-4234
▁listen	-4235
hand	-4236
▁App	-4237
▁Nick	-4238
▁pair	-4239
▁aware	-4240
▁holes	-4241
▁employ	-4242
▁worthy	-4243
▁deserved	-4244
▁bene	-4245
▁hook	-4246
ording	-4247
▁dying	-4248
▁Anyway	-4249
▁loving	-4250
▁Douglas	-4251
▁neighbor	-4252
otes	-4253
uddy	-4254
vate	-4255
▁pra	-4256
▁tend	-4257
▁plane	-4258
▁Taylor	-4259
▁brutal	-4260
▁martial	-4261
▁possess	-4262
▁anywhere	-4263
▁pleasure	-4264
▁unnecessary	-4265
Un	-4266
irk	-4267
▁IN	-4268
▁Sl	-4269
▁la	-4270
/10.	-4271
apped	-4272
▁ugly	-4273
▁flying	-4274
▁scared	-4275
▁channel	-4276
▁wearing	-4277
▁remarkable	-4278
▁Du	-4279
illa	-4280
▁Did	-4281
▁Ford	-4282
▁rubb	-4283
▁thus	-4284
resses	-4285
▁agent	-4286
▁elect	-4287
▁mental	-4288
asts	-4289
ivil	-4290
▁deb	-4291
▁der	-4292
▁doz	-4293
▁food	-4294
▁kidn	-4295
▁Robin	-4296
▁scare	-4297
▁woods	-4298
▁Stephen	-4299
▁unusual	-4300
▁signific	-4301
ademy	-4302
rical	-4303
▁epic	-4304
▁slap	-4305
▁perform	-4306
▁suicide	-4307
▁personally	-4308
do	-4309
▁du	-4310
ipul	-4311
▁Dam	-4312
▁deg	-4313
cture	-4314
▁memory	-4315
▁engaging	-4316
▁finished	-4317
enge	-4318
kward	-4319
odies	-4320
▁loss	-4321
undred	-4322
▁birth	-4323
▁relie	-4324
▁humans	-4325
▁accompl	-4326
▁compare	-4327
▁speaking	-4328
▁knowledge	-4329
▁surprising	-4330
yes	-4331
▁VH	-4332
▁CGI	-4333
▁cal	-4334
▁teenage	-4335
De	-4336
ugs	-4337
▁WH	-4338
bian	-4339
ators	-4340
terest	-4341
▁Te	-4342
▁Les	-4343
▁Barb	-4344
▁bits	-4345
▁empt	-4346
father	-4347
▁asked	-4348
▁holds	-4349
▁motiv	-4350
▁Brother	-4351
▁England	-4352
▁desperate	-4353
rs	-4354
esh	-4355
Some	-4356
adow	-4357
ario	-4358
▁Lau	-4359
▁coun	-4360
▁debut	-4361
▁expert	-4362
▁account	-4363
▁awkward	-4364
▁11	-4365
▁Jr	-4366
,000	-4367
olds	-4368
▁Sad	-4369
oring	-4370
owell	-4371
▁grat	-4372
▁mild	-4373
▁Danny	-4374
▁bland	-4375
▁visit	-4376
▁Keaton	-4377
▁prefer	-4378
▁limited	-4379
▁instance	-4380
▁intriguing	-4381
)<	-4382
-1	-4383
SE	-4384
kes	-4385
▁Ol	-4386
ousy	-4387
rous	-4388
▁vehic	-4389
rifying	-4390
▁target	-4391
▁Russian	-4392
▁Wil	-4393
▁ted	-4394
bered	-4395
▁Joan	-4396
▁crowd	-4397
▁pilot	-4398
▁Hitler	-4399
▁Morgan	-4400
▁pacing	-4401
▁rarely	-4402
especially	-4403
▁sentiment	-4404
▁watchable	-4405
port	-4406
▁Life	-4407
▁craft	-4408
▁reminds	-4409
▁wanting	-4410
▁winning	-4411
▁religious	-4412
UT	-4413
miss	-4414
▁bal	-4415
▁sac	-4416
tered	-4417
▁Show	-4418
▁impl	-4419
▁horse	-4420
▁smile	-4421
▁belong	-4422
▁deserve	-4423
▁hundred	-4424
ano	-4425
uct	-4426
ilst	-4427
plot	-4428
cient	-4429
▁Andy	-4430
▁Jenn	-4431
▁Lind	-4432
▁suck	-4433
orious	-4434
▁gotten	-4435
▁criminal	-4436
▁independent	-4437
iro	-4438
▁Av	-4439
▁Er	-4440
▁Ry	-4441
omen	-4442
teen	-4443
▁Sus	-4444
▁bur	-4445
ooper	-4446
▁hurt	-4447
▁White	-4448
TV	-4449
▁Jew	-4450
▁ing	-4451
▁lay	-4452
▁mut	-4453
▁born	-4454
▁enth	-4455
▁tour	-4456
▁explos	-4457
aturally	-4458
:<	-4459
Any	-4460
▁Li	-4461
ourne	-4462
▁stret	-4463
▁Andrew	-4464
ominated	-4465
▁players	-4466
▁reflect	-4467
▁torture	-4468
mo	-4469
ogy	-4470
rays	-4471
xual	-4472
▁Jud	-4473
▁cow	-4474
▁opt	-4475
▁ris	-4476
▁lets	-4477
▁wond	-4478
▁freak	-4479
▁separ	-4480
ression	-4481
▁capture	-4482
▁accurate	-4483
▁creature	-4484
oom	-4485
yer	-4486
abor	-4487
▁Naz	-4488
▁Roy	-4489
▁Pres	-4490
▁arts	-4491
▁blame	-4492
▁board	-4493
▁church	-4494
▁anybody	-4495
▁unknown	-4496
▁constant	-4497
▁explained	-4498
▁explanation	-4499
Sc	-4500
▁DO	-4501
eper	-4502
imal	-4503
▁Hel	-4504
▁Rus	-4505
▁Was	-4506
stein	-4507
▁Jason	-4508
▁hated	-4509
entions	-4510
ruction	-4511
▁Horror	-4512
▁desire	-4513
▁interpret	-4514
aly	-4515
rem	-4516
▁Pac	-4517
▁Sil	-4518
▁rul	-4519
▁Jose	-4520
▁cops	-4521
▁aband	-4522
▁manage	-4523
▁community	-4524
▁pretentious	-4525
atra	-4526
lock	-4527
▁pet	-4528
▁hadn	-4529
▁Since	-4530
▁heads	-4531
▁media	-4532
▁belief	-4533
▁magnific	-4534
▁13	-4535
ounds	-4536
▁guns	-4537
▁phil	-4538
▁Lynch	-4539
▁categ	-4540
▁issue	-4541
▁regret	-4542
▁Western	-4543
▁creating	-4544
▁Everything	-4545
esty	-4546
▁Law	-4547
atory	-4548
pless	-4549
▁Lady	-4550
▁thous	-4551
▁convin	-4552
▁nicely	-4553
▁toward	-4554
▁protect	-4555
."<	-4556
unted	-4557
▁mixed	-4558
▁uncon	-4559
looking	-4560
▁Johnny	-4561
ewis	-4562
othy	-4563
▁VHS	-4564
▁cars	-4565
▁grad	-4566
▁soap	-4567
▁text	-4568
▁Eddie	-4569
▁hopes	-4570
▁radio	-4571
▁stink	-4572
▁Columb	-4573
▁Daniel	-4574
▁Please	-4575
▁lovers	-4576
▁returns	-4577
No	-4578
arp	-4579
▁vo	-4580
stal	-4581
▁Ron	-4582
iance	-4583
▁chore	-4584
▁floor	-4585
▁games	-4586
▁Albert	-4587
▁Having	-4588
▁hidden	-4589
▁growing	-4590
▁heroine	-4591
▁results	-4592
vy	-4593
isc	-4594
sec	-4595
▁Sy	-4596
reck	-4597
soci	-4598
While	-4599
hered	-4600
▁award	-4601
▁chick	-4602
▁thats	-4603
▁Street	-4604
director	-4605
▁treated	-4606
▁humanity	-4607
▁intellect	-4608
▁responsible	-4609
vant	-4610
▁tur	-4611
▁army	-4612
▁lies	-4613
natural	-4614
▁fights	-4615
▁months	-4616
▁context	-4617
▁proceed	-4618
▁included	-4619
▁memories	-4620
Oh	-4621
aa	-4622
ned	-4623
▁REA	-4624
▁hyp	-4625
▁desp	-4626
▁skin	-4627
▁determ	-4628
▁player	-4629
ashington	-4630
▁behavior	-4631
▁villains	-4632
▁understanding	-4633
);	-4634
eed	-4635
▁ic	-4636
cock	-4637
ueen	-4638
▁Del	-4639
point	-4640
▁Hall	-4641
▁Kate	-4642
▁hits	-4643
ushing	-4644
▁stock	-4645
▁finest	-4646
▁pulled	-4647
▁charism	-4648
▁noticed	-4649
▁contrast	-4650
John	-4651
star	-4652
umps	-4653
▁Fre	-4654
▁card	-4655
▁mine	-4656
▁field	-4657
▁skills	-4658
▁partner	-4659
▁rubbish	-4660
▁soldier	-4661
▁terribly	-4662
bad	-4663
vit	-4664
omas	-4665
oons	-4666
oses	-4667
thony	-4668
▁Girl	-4669
▁animal	-4670
▁circum	-4671
upp	-4672
iful	-4673
▁/>-	-4674
entle	-4675
▁safe	-4676
▁twenty	-4677
▁Spanish	-4678
▁lacking	-4679
▁concerned	-4680
isa	-4681
nie	-4682
ulf	-4683
away	-4684
cise	-4685
ivity	-4686
▁Bond	-4687
▁East	-4688
▁fate	-4689
▁bloody	-4690
▁perspective	-4691
gn	-4692
sen	-4693
▁Men	-4694
agers	-4695
▁frequ	-4696
▁finale	-4697
▁imagin	-4698
ensional	-4699
▁talents	-4700
▁dangerous	-4701
▁represent	-4702
▁?	-4703
ean	-4704
▁Mi	-4705
▁Lord	-4706
▁transl	-4707
fortable	-4708
▁reaction	-4709
▁delightful	-4710
sion	-4711
▁ban	-4712
icked	-4713
ulous	-4714
▁Death	-4715
▁tight	-4716
▁Everyone	-4717
▁numerous	-4718
▁opposite	-4719
▁continues	-4720
▁Ram	-4721
▁Ver	-4722
▁boo	-4723
there	-4724
▁Mike	-4725
▁earn	-4726
▁Space	-4727
▁resol	-4728
▁saved	-4729
▁assist	-4730
▁locations	-4731
▁Washington	-4732
tle	-4733
▁(2	-4734
▁60	-4735
ails	-4736
▁Cam	-4737
▁Eric	-4738
screen	-4739
▁dated	-4740
▁loses	-4741
▁prove	-4742
▁breaks	-4743
▁priest	-4744
za	-4745
rix	-4746
▁mob	-4747
▁sin	-4748
ilies	-4749
▁Cass	-4750
▁Hart	-4751
▁gags	-4752
▁naive	-4753
▁sucks	-4754
▁heroes	-4755
▁theatre	-4756
▁humorous	-4757
▁murdered	-4758
▁reviewers	-4759
Ar	-4760
oh	-4761
ids	-4762
they	-4763
▁van	-4764
ribut	-4765
▁Hell	-4766
▁Those	-4767
▁below	-4768
▁deals	-4769
▁empty	-4770
▁incre	-4771
▁troub	-4772
▁witch	-4773
▁bigger	-4774
▁satire	-4775
▁wealth	-4776
American	-4777
▁manipul	-4778
▁unfunny	-4779
▁European	-4780
▁traditional	-4781
▁Im	-4782
etic	-4783
▁ner	-4784
ummer	-4785
▁Jesus	-4786
▁cable	-4787
▁kinda	-4788
▁opens	-4789
POILERS	-4790
▁remain	-4791
▁keeping	-4792
▁captured	-4793
▁discovered	-4794
lle	-4795
pir	-4796
▁Simon	-4797
▁owner	-4798
▁unint	-4799
▁summer	-4800
▁efforts	-4801
asm	-4802
irm	-4803
idge	-4804
sell	-4805
▁ens	-4806
▁model	-4807
▁organ	-4808
However	-4809
arently	-4810
▁advice	-4811
▁forces	-4812
▁dealing	-4813
▁driving	-4814
▁regular	-4815
▁Superman	-4816
▁circumst	-4817
▁received	-4818
▁starting	-4819
tw	-4820
bur	-4821
ching	-4822
urity	-4823
▁Broad	-4824
▁calls	-4825
▁steal	-4826
▁Freddy	-4827
although	-4828
▁learned	-4829
▁confront	-4830
OL	-4831
tr	-4832
ads	-4833
spe	-4834
▁ju	-4835
oore	-4836
▁Sid	-4837
▁sal	-4838
▁sed	-4839
anned	-4840
arner	-4841
alling	-4842
▁cameo	-4843
▁frame	-4844
▁incomp	-4845
▁display	-4846
▁survive	-4847
▁distract	-4848
▁nonsense	-4849
▁revealed	-4850
▁psychological	-4851
ups	-4852
ruct	-4853
▁tor	-4854
▁Coll	-4855
hester	-4856
iverse	-4857
▁marry	-4858
▁insane	-4859
▁corrupt	-4860
▁machine	-4861
▁versions	-4862
uh	-4863
▁Val	-4864
itter	-4865
osaur	-4866
unter	-4867
▁Gene	-4868
▁bath	-4869
▁cuts	-4870
atives	-4871
▁uncle	-4872
hearted	-4873
▁philos	-4874
▁realism	-4875
▁shallow	-4876
ILL	-4877
ban	-4878
Also	-4879
Then	-4880
▁grew	-4881
▁park	-4882
▁Kevin	-4883
▁Which	-4884
▁print	-4885
▁decade	-4886
▁proved	-4887
▁visuals	-4888
▁existence	-4889
▁originally	-4890
top	-4891
hent	-4892
hern	-4893
mary	-4894
some	-4895
▁Bet	-4896
▁dry	-4897
▁Jess	-4898
▁THIS	-4899
▁educ	-4900
▁hall	-4901
▁junk	-4902
porary	-4903
▁grown	-4904
▁Harris	-4905
▁ladies	-4906
▁surreal	-4907
▁somebody	-4908
▁genuinely	-4909
▁comparison	-4910
!).	-4911
ued	-4912
▁Rom	-4913
▁inex	-4914
▁sword	-4915
▁ordinary	-4916
▁experiment	-4917
▁remembered	-4918
▁pit	-4919
ordon	-4920
viron	-4921
▁Kong	-4922
▁blue	-4923
ivered	-4924
luding	-4925
▁Jimmy	-4926
▁court	-4927
▁allows	-4928
▁African	-4929
▁consist	-4930
▁segment	-4931
▁therefore	-4932
acc	-4933
don	-4934
mble	-4935
▁Jan	-4936
▁inh	-4937
ashes	-4938
▁Rain	-4939
▁disp	-4940
▁frank	-4941
▁uncom	-4942
ication	-4943
▁higher	-4944
▁overly	-4945
ometimes	-4946
▁foreign	-4947
▁experien	-4948
▁gangster	-4949
▁featuring	-4950
They	-4951
▁Leon	-4952
▁sake	-4953
▁green	-4954
▁witty	-4955
▁passed	-4956
▁relief	-4957
▁officer	-4958
va	-4959
ym	-4960
▁/>1	-4961
▁bat	-4962
▁EVER	-4963
▁arch	-4964
▁bear	-4965
▁tack	-4966
▁seven	-4967
▁study	-4968
▁Before	-4969
▁connect	-4970
▁irritating	-4971
???	-4972
asp	-4973
▁14	-4974
Even	-4975
▁arm	-4976
▁tun	-4977
anged	-4978
▁Capt	-4979
▁Cent	-4980
▁fict	-4981
uitous	-4982
▁Franc	-4983
▁Hitch	-4984
▁Welles	-4985
▁unable	-4986
▁unconv	-4987
▁warning	-4988
enny	-4989
▁Mal	-4990
▁les	-4991
▁vul	-4992
▁redu	-4993
▁plots	-4994
▁sheer	-4995
▁speed	-4996
▁Howard	-4997
▁advert	-4998
▁sucked	-4999
▁window	-5000
alloween	-5001
▁creates	-5002
▁curious	-5003
▁morning	-5004
▁discovers	-5005
▁screaming	-5006
▁connection	-5007
▁Had	-5008
▁lat	-5009
▁Cage	-5010
▁Carr	-5011
▁Rose	-5012
▁Sean	-5013
▁Sund	-5014
▁associ	-5015
▁powers	-5016
finitely	-5017
▁failure	-5018
▁revolution	-5019
ores	-5020
▁fif	-5021
▁obl	-5022
First	-5023
▁Luke	-5024
▁site	-5025
▁Santa	-5026
▁Stone	-5027
▁gonna	-5028
▁press	-5029
▁types	-5030
▁convey	-5031
▁leader	-5032
▁Anthony	-5033
▁mission	-5034
▁research	-5035
entionally	-5036
▁delivered	-5037
▁spectacular	-5038
▁stereotypes	-5039
rie	-5040
▁Es	-5041
▁di	-5042
oken	-5043
▁hur	-5044
▁net	-5045
icate	-5046
▁goof	-5047
theless	-5048
▁edited	-5049
▁marvel	-5050
▁majority	-5051
▁references	-5052
▁technology	-5053
arc	-5054
▁YOU	-5055
▁Beat	-5056
▁Cind	-5057
▁emer	-5058
▁reun	-5059
▁ring	-5060
▁North	-5061
▁lesson	-5062
▁necess	-5063
▁environ	-5064
▁wedding	-5065
▁brilliantly	-5066
.5	-5067
ba	-5068
fit	-5069
law	-5070
lim	-5071
nox	-5072
ugos	-5073
▁Rod	-5074
▁bot	-5075
orthy	-5076
▁kiss	-5077
hentic	-5078
▁miser	-5079
▁refres	-5080
▁relate	-5081
▁singer	-5082
▁subtit	-5083
ums	-5084
▁Dor	-5085
▁mini	-5086
▁obsc	-5087
▁shop	-5088
reedom	-5089
▁grace	-5090
▁princ	-5091
▁teach	-5092
▁caused	-5093
▁colour	-5094
▁families	-5095
▁laughter	-5096
▁emotionally	-5097
▁protagonist	-5098
With	-5099
iser	-5100
ques	-5101
stit	-5102
iling	-5103
ville	-5104
▁Kenn	-5105
▁fare	-5106
▁altern	-5107
▁recall	-5108
▁entertained	-5109
RI	-5110
lly	-5111
yal	-5112
▁fal	-5113
▁syn	-5114
▁sole	-5115
▁crappy	-5116
▁speech	-5117
▁ultimate	-5118
▁painfully	-5119
▁treatment	-5120
yr	-5121
LLY	-5122
dom	-5123
▁IT	-5124
done	-5125
▁Kim	-5126
▁Tex	-5127
iforn	-5128
▁Cast	-5129
▁Gary	-5130
▁Wars	-5131
acting	-5132
▁Brown	-5133
▁corny	-5134
▁gross	-5135
▁Master	-5136
▁compan	-5137
▁attitude	-5138
▁combination	-5139
Of	-5140
ser	-5141
▁SH	-5142
chan	-5143
▁Int	-5144
▁cyn	-5145
▁gory	-5146
▁send	-5147
▁tick	-5148
▁trib	-5149
erella	-5150
mother	-5151
▁Tarzan	-5152
▁frustr	-5153
▁excited	-5154
RA	-5155
aret	-5156
bell	-5157
▁Hay	-5158
▁ran	-5159
▁cash	-5160
▁Louis	-5161
▁built	-5162
▁inept	-5163
▁logic	-5164
▁skill	-5165
▁spoof	-5166
........	-5167
▁Sinatra	-5168
▁Univers	-5169
▁vehicle	-5170
▁executed	-5171
▁identity	-5172
▁amateurish	-5173
▁magnificent	-5174
aybe	-5175
After	-5176
ether	-5177
▁Trek	-5178
▁Thank	-5179
▁veter	-5180
ulation	-5181
▁Academy	-5182
▁graphic	-5183
▁meeting	-5184
▁believes	-5185
▁challeng	-5186
▁pleasant	-5187
▁gratuitous	-5188
She	-5189
ker	-5190
▁Wr	-5191
ynam	-5192
▁Dra	-5193
liver	-5194
▁appl	-5195
▁Moore	-5196
▁assume	-5197
▁establ	-5198
▁levels	-5199
▁parody	-5200
▁portrays	-5201
▁described	-5202
whel	-5203
▁Out	-5204
aming	-5205
cohol	-5206
▁Long	-5207
▁Time	-5208
▁lone	-5209
stream	-5210
teresting	-5211
▁decision	-5212
▁dreadful	-5213
▁reviewer	-5214
▁theaters	-5215
▁flashbacks	-5216
▁underrated	-5217
▁occasionally	-5218
outs	-5219
▁Gar	-5220
stick	-5221
angers	-5222
▁paper	-5223
▁peace	-5224
▁screw	-5225
ifornia	-5226
▁seasons	-5227
▁stopped	-5228
▁expression	-5229
▁refreshing	-5230
ls	-5231
ombie	-5232
▁Mont	-5233
▁bond	-5234
▁tape	-5235
unning	-5236
▁Cinem	-5237
▁cruel	-5238
▁excit	-5239
▁harsh	-5240
▁France	-5241
▁Gordon	-5242
▁asking	-5243
▁blonde	-5244
▁learns	-5245
▁ruined	-5246
▁endless	-5247
▁produce	-5248
▁Anderson	-5249
▁handsome	-5250
▁involves	-5251
▁contrived	-5252
▁embarrassing	-5253
GE	-5254
ama	-5255
urs	-5256
ault	-5257
ilty	-5258
kend	-5259
omed	-5260
omer	-5261
▁Wow	-5262
▁fle	-5263
ights	-5264
▁Viet	-5265
▁ende	-5266
▁range	-5267
telling	-5268
▁broken	-5269
▁inspir	-5270
▁capable	-5271
▁Broadway	-5272
▁Victoria	-5273
▁religion	-5274
mat	-5275
phy	-5276
▁Over	-5277
▁ages	-5278
▁boat	-5279
taking	-5280
▁Wayne	-5281
▁Joseph	-5282
▁Parker	-5283
▁Jennifer	-5284
▁appealing	-5285
▁essentially	-5286
▁practically	-5287
▁sympathetic	-5288
II	-5289
ja	-5290
▁Ell	-5291
▁Ter	-5292
▁pal	-5293
▁Okay	-5294
▁fund	-5295
▁king	-5296
▁scar	-5297
▁Marie	-5298
▁Thomas	-5299
▁choose	-5300
▁Hitchcock	-5301
ugg	-5302
usi	-5303
▁Ku	-5304
▁Haw	-5305
▁Pre	-5306
▁Anton	-5307
▁stalk	-5308
▁sports	-5309
▁normally	-5310
▁authentic	-5311
UN	-5312
nam	-5313
▁TO	-5314
urns	-5315
▁wel	-5316
abeth	-5317
ients	-5318
▁Brad	-5319
▁Last	-5320
▁spin	-5321
▁Again	-5322
▁Miche	-5323
▁costs	-5324
▁punch	-5325
aturday	-5326
▁Really	-5327
▁murdere	-5328
▁streets	-5329
IGH	-5330
core	-5331
inis	-5332
ichol	-5333
▁feet	-5334
▁substance	-5335
▁suffering	-5336
▁portraying	-5337
▁satisfying	-5338
ked	-5339
uns	-5340
----	-5341
▁Ash	-5342
▁Max	-5343
▁Sky	-5344
▁vac	-5345
class	-5346
isher	-5347
▁Anne	-5348
▁Full	-5349
▁Look	-5350
▁Wild	-5351
▁Grant	-5352
▁cares	-5353
▁judge	-5354
▁Germany	-5355
▁largely	-5356
▁monsters	-5357
▁standing	-5358
▁thoughts	-5359
▁appropriate	-5360
▁unrealistic	-5361
▁circumstances	-5362
nal	-5363
ndo	-5364
pet	-5365
gent	-5366
udic	-5367
▁ALL	-5368
▁Dar	-5369
▁Mrs	-5370
▁Ros	-5371
amily	-5372
▁THAT	-5373
▁myth	-5374
▁yeah	-5375
▁Asian	-5376
▁Woody	-5377
▁conce	-5378
▁proud	-5379
▁eating	-5380
▁whilst	-5381
▁routine	-5382
▁evidence	-5383
▁depressing	-5384
▁excitement	-5385
▁environment	-5386
zo	-5387
ada	-5388
ule	-5389
long	-5390
walk	-5391
▁emp	-5392
▁Moon	-5393
▁neat	-5394
buster	-5395
▁flesh	-5396
▁inner	-5397
▁voices	-5398
▁ancient	-5399
▁hearing	-5400
▁sequels	-5401
▁tedious	-5402
Rob	-5403
▁25	-5404
▁LA	-5405
erie	-5406
roll	-5407
▁/>*	-5408
▁Sur	-5409
oting	-5410
▁zero	-5411
▁purch	-5412
▁talks	-5413
▁Jackie	-5414
▁chosen	-5415
▁dressed	-5416
▁village	-5417
▁captures	-5418
▁visually	-5419
▁whenever	-5420
▁convinced	-5421
▁theatrical	-5422
ari	-5423
▁da	-5424
ooth	-5425
pass	-5426
rate	-5427
▁Are	-5428
▁fly	-5429
ethod	-5430
oster	-5431
▁Second	-5432
▁involve	-5433
▁matters	-5434
▁Canadian	-5435
,'	-5436
Re	-5437
upt	-5438
▁UK	-5439
▁Mir	-5440
▁cab	-5441
ilogy	-5442
orted	-5443
▁Matt	-5444
▁Pitt	-5445
▁fame	-5446
▁seat	-5447
▁soph	-5448
▁Lewis	-5449
▁Prince	-5450
▁compos	-5451
▁erotic	-5452
▁propag	-5453
▁unfortun	-5454
fl	-5455
apes	-5456
▁Whe	-5457
▁fits	-5458
▁vague	-5459
▁walks	-5460
▁asleep	-5461
▁inevit	-5462
▁rescue	-5463
▁Francis	-5464
▁exploitation	-5465
Sp	-5466
made	-5467
▁crack	-5468
▁Africa	-5469
▁center	-5470
▁counter	-5471
▁teenager	-5472
▁disgusting	-5473
ga	-5474
nan	-5475
▁BE	-5476
icol	-5477
olic	-5478
▁Dog	-5479
▁VER	-5480
▁Care	-5481
▁Chan	-5482
▁cant	-5483
▁Clark	-5484
raction	-5485
▁alcohol	-5486
▁strongly	-5487
▁fictional	-5488
▁teenagers	-5489
ENT	-5490
tes	-5491
▁NO	-5492
mind	-5493
anagh	-5494
produ	-5495
▁lousy	-5496
▁Powell	-5497
▁steals	-5498
▁criticism	-5499
):	-5500
GM	-5501
VE	-5502
▁Ho	-5503
▁Us	-5504
▁bre	-5505
▁hol	-5506
arian	-5507
imate	-5508
otion	-5509
▁rend	-5510
▁anime	-5511
▁forth	-5512
▁Anyone	-5513
▁assass	-5514
▁excess	-5515
▁Barbara	-5516
▁extraord	-5517
▁qualities	-5518
ait	-5519
▁Tor	-5520
▁rot	-5521
uther	-5522
▁Karl	-5523
▁Ryan	-5524
▁Nancy	-5525
▁facts	-5526
▁glass	-5527
▁maint	-5528
rocious	-5529
▁bodies	-5530
▁dubbed	-5531
▁Russell	-5532
▁initial	-5533
▁generation	-5534
ume	-5535
irds	-5536
▁Art	-5537
▁vol	-5538
▁Anna	-5539
▁Plus	-5540
▁clue	-5541
▁Gener	-5542
▁grade	-5543
▁refer	-5544
▁revel	-5545
▁rival	-5546
▁sharp	-5547
osexual	-5548
▁Murphy	-5549
▁hyster	-5550
▁losing	-5551
▁saving	-5552
▁capital	-5553
▁depicted	-5554
▁structure	-5555
▁unfortunate	-5556
Ste	-5557
ani	-5558
chy	-5559
ners	-5560
▁Cle	-5561
▁1980	-5562
orting	-5563
▁lower	-5564
▁rental	-5565
▁touches	-5566
▁believed	-5567
▁category	-5568
▁horribly	-5569
▁unlikely	-5570
3.	-5571
ae	-5572
▁Kh	-5573
▁La	-5574
▁Up	-5575
▁vs	-5576
▁Dem	-5577
▁Mil	-5578
▁San	-5579
etime	-5580
▁1950	-5581
▁emph	-5582
▁heav	-5583
▁pile	-5584
▁vote	-5585
▁false	-5586
▁ludic	-5587
▁pregn	-5588
▁angles	-5589
▁costume	-5590
▁promise	-5591
▁offensive	-5592
▁virtually	-5593
▁controvers	-5594
▁relatively	-5595
▁contemporary	-5596
elle	-5597
▁Bon	-5598
▁gig	-5599
▁ruin	-5600
tended	-5601
▁Barry	-5602
▁chose	-5603
▁expos	-5604
▁prior	-5605
▁spell	-5606
▁claims	-5607
▁heaven	-5608
▁lawyer	-5609
▁serves	-5610
▁sitcom	-5611
▁accents	-5612
▁consequ	-5613
▁handled	-5614
▁baseball	-5615
▁descript	-5616
▁football	-5617
---	-5618
orb	-5619
itiz	-5620
pent	-5621
achel	-5622
▁acqu	-5623
▁cann	-5624
▁plans	-5625
▁reput	-5626
▁latest	-5627
▁makeup	-5628
▁reject	-5629
▁speaks	-5630
▁holding	-5631
▁suffers	-5632
▁bringing	-5633
▁obsessed	-5634
▁spoilers	-5635
chen	-5636
ella	-5637
▁Sun	-5638
▁wid	-5639
▁vide	-5640
▁Texas	-5641
▁unfor	-5642
ogether	-5643
▁source	-5644
▁viewed	-5645
▁multiple	-5646
▁atrocious	-5647
▁influence	-5648
▁experiences	-5649
▁Sn	-5650
beat	-5651
ivan	-5652
▁Wat	-5653
▁Bern	-5654
▁pity	-5655
▁semi	-5656
▁civil	-5657
▁lucky	-5658
▁polic	-5659
▁pursu	-5660
▁truck	-5661
written	-5662
▁enthusi	-5663
▁evening	-5664
▁hanging	-5665
▁reminis	-5666
▁shocked	-5667
▁Watching	-5668
▁training	-5669
▁promising	-5670
anny	-5671
anity	-5672
athan	-5673
▁Gill	-5674
▁Hill	-5675
inging	-5676
▁arrest	-5677
▁deaths	-5678
▁particip	-5679
▁presents	-5680
▁provided	-5681
▁realizes	-5682
▁reporter	-5683
▁execution	-5684
▁forgettable	-5685
sm	-5686
aura	-5687
▁Add	-5688
▁Bor	-5689
▁Pri	-5690
eness	-5691
▁Page	-5692
▁batt	-5693
▁drop	-5694
▁quir	-5695
▁rise	-5696
▁Sadly	-5697
▁trick	-5698
viously	-5699
▁Island	-5700
▁States	-5701
▁Wilson	-5702
▁degree	-5703
▁factor	-5704
▁Brothers	-5705
▁Festival	-5706
▁classics	-5707
▁convince	-5708
▁politics	-5709
▁Australian	-5710
▁intellectual	-5711
▁uninteresting	-5712
ij	-5713
▁NE	-5714
▁SE	-5715
aren	-5716
ummy	-5717
▁MOV	-5718
▁hen	-5719
▁sne	-5720
rehen	-5721
▁harm	-5722
▁Irish	-5723
▁bound	-5724
▁paint	-5725
ressive	-5726
▁painting	-5727
▁surprises	-5728
ION	-5729
iat	-5730
och	-5731
ship	-5732
▁Cas	-5733
▁Ted	-5734
▁bag	-5735
amous	-5736
ioned	-5737
loved	-5738
ugosi	-5739
▁1970	-5740
▁Dian	-5741
▁link	-5742
▁brave	-5743
▁graph	-5744
▁weeks	-5745
ausible	-5746
▁closer	-5747
▁covered	-5748
▁cartoons	-5749
▁complain	-5750
▁mistakes	-5751
▁nominated	-5752
cr	-5753
▁Rem	-5754
▁abr	-5755
▁hey	-5756
▁nin	-5757
▁sho	-5758
▁Camp	-5759
ighter	-5760
▁Caine	-5761
▁bitter	-5762
▁Captain	-5763
▁Patrick	-5764
▁exagger	-5765
▁focused	-5766
▁frankly	-5767
▁lesbian	-5768
including	-5769
▁movement	-5770
▁continuity	-5771
▁supernatural	-5772
▁)	-5773
"),	-5774
ida	-5775
odd	-5776
olph	-5777
umph	-5778
▁Det	-5779
▁arg	-5780
▁cas	-5781
ennis	-5782
▁Kill	-5783
▁mask	-5784
▁skip	-5785
formed	-5786
▁idiot	-5787
ullivan	-5788
▁Pacino	-5789
▁invent	-5790
▁festival	-5791
▁overlook	-5792
▁previously	-5793
▁propaganda	-5794
2.	-5795
Cl	-5796
Why	-5797
ixt	-5798
cker	-5799
▁Fer	-5800
▁Hoff	-5801
inated	-5802
ulated	-5803
▁Grand	-5804
▁crude	-5805
▁kinds	-5806
▁poign	-5807
▁admire	-5808
▁commit	-5809
▁emphas	-5810
▁walked	-5811
▁Finally	-5812
▁freedom	-5813
▁killers	-5814
▁section	-5815
▁combined	-5816
▁distribut	-5817
▁recognize	-5818
IR	-5819
Le	-5820
!),	-5821
airs	-5822
icit	-5823
udes	-5824
▁Get	-5825
▁Mod	-5826
▁eld	-5827
▁gas	-5828
▁Does	-5829
▁Much	-5830
▁Wend	-5831
▁stol	-5832
▁dirty	-5833
▁Nichol	-5834
▁crimin	-5835
▁contest	-5836
▁offered	-5837
▁Actually	-5838
▁haunting	-5839
▁overwhel	-5840
▁committed	-5841
▁occasional	-5842
▁struggling	-5843
▁frightening	-5844
wy	-5845
acle	-5846
atal	-5847
iens	-5848
ston	-5849
▁Far	-5850
▁MGM	-5851
▁lie	-5852
▁Comm	-5853
▁Comp	-5854
▁Kore	-5855
▁Pict	-5856
▁Vinc	-5857
▁term	-5858
arning	-5859
▁sorts	-5860
lection	-5861
umbling	-5862
▁concent	-5863
▁surface	-5864
▁creatures	-5865
▁narration	-5866
▁accidentally	-5867
eds	-5868
uls	-5869
▁Tri	-5870
▁Wor	-5871
▁Hong	-5872
▁nude	-5873
▁sche	-5874
▁Dream	-5875
▁anger	-5876
▁fairy	-5877
▁river	-5878
▁rough	-5879
▁Walter	-5880
▁landsc	-5881
▁Without	-5882
▁improve	-5883
▁outrage	-5884
▁private	-5885
▁Apparently	-5886
▁mainstream	-5887
AA	-5888
Pl	-5889
▁0	-5890
ader	-5891
ashy	-5892
▁Cru	-5893
▁Off	-5894
▁Sat	-5895
icted	-5896
▁None	-5897
▁blow	-5898
▁cris	-5899
▁Being	-5900
▁Roger	-5901
▁dynam	-5902
▁ideal	-5903
▁rules	-5904
▁spite	-5905
▁United	-5906
▁colors	-5907
▁health	-5908
▁remotely	-5909
▁Halloween	-5910
▁reputation	-5911
▁experienced	-5912
Do	-5913
add	-5914
shi	-5915
ante	-5916
▁Cap	-5917
▁Drew	-5918
▁sink	-5919
▁stom	-5920
▁Roman	-5921
▁abuse	-5922
▁guard	-5923
▁price	-5924
▁psycho	-5925
▁spends	-5926
▁cutting	-5927
▁dollars	-5928
▁massive	-5929
▁directly	-5930
▁featured	-5931
hi	-5932
gie	-5933
ona	-5934
noon	-5935
onel	-5936
▁Mer	-5937
▁flo	-5938
ungle	-5939
▁Evil	-5940
▁wear	-5941
▁Later	-5942
▁Oliver	-5943
▁captiv	-5944
▁castle	-5945
▁Hoffman	-5946
▁figures	-5947
▁trilogy	-5948
▁demonstr	-5949
▁position	-5950
▁downright	-5951
▁Cinderella	-5952
▁everywhere	-5953
▁CH	-5954
wing	-5955
usive	-5956
▁Baby	-5957
▁Bros	-5958
▁Fair	-5959
▁VERY	-5960
▁jail	-5961
▁till	-5962
apping	-5963
Another	-5964
izabeth	-5965
▁accomp	-5966
▁method	-5967
atically	-5968
▁bothered	-5969
▁designed	-5970
▁werewolf	-5971
▁melodrama	-5972
▁statement	-5973
▁worthwhile	-5974
▁effectively	-5975
ya	-5976
mal	-5977
▁Ha	-5978
▁Sk	-5979
Just	-5980
▁BBC	-5981
▁Cur	-5982
▁shut	-5983
▁Avoid	-5984
▁Count	-5985
▁paced	-5986
▁Edward	-5987
▁gentle	-5988
▁figured	-5989
▁imagery	-5990
▁Saturday	-5991
▁required	-5992
▁favorites	-5993
▁performed	-5994
BI	-5995
Fi	-5996
UR	-5997
ems	-5998
girl	-5999
kins	-6000
laim	-6001
mate	-6002
▁Sal	-6003
iform	-6004
stalg	-6005
▁Hope	-6006
▁Plan	-6007
▁swim	-6008
▁liber	-6009
▁pulls	-6010
▁scale	-6011
▁teens	-6012
▁Wonder	-6013
▁Columbo	-6014
▁nostalg	-6015
▁prostit	-6016
▁explains	-6017
▁sensitive	-6018
▁subtitles	-6019
▁suspenseful	-6020
▁unconvincing	-6021
dim	-6022
▁fu	-6023
▁fab	-6024
▁fix	-6025
▁Fran	-6026
▁snow	-6027
belief	-6028
▁hired	-6029
▁crying	-6030
▁format	-6031
▁stayed	-6032
▁suffer	-6033
▁Johnson	-6034
▁tremend	-6035
▁incident	-6036
▁sympathy	-6037
▁Sometimes	-6038
arg	-6039
ura	-6040
▁2.	-6041
▁Ast	-6042
stone	-6043
▁camer	-6044
▁guest	-6045
▁loyal	-6046
▁upset	-6047
▁Lugosi	-6048
▁buying	-6049
▁extras	-6050
▁stolen	-6051
▁Through	-6052
▁reveals	-6053
▁contract	-6054
▁dinosaur	-6055
▁encounter	-6056
Yes	-6057
ulp	-6058
▁16	-6059
mond	-6060
▁Dun	-6061
▁Eve	-6062
▁ded	-6063
▁bore	-6064
▁task	-6065
▁encou	-6066
▁simpl	-6067
▁spark	-6068
▁stays	-6069
onsider	-6070
▁Bourne	-6071
▁amazed	-6072
▁awards	-6073
▁scares	-6074
▁focuses	-6075
▁twisted	-6076
▁faithful	-6077
Ne	-6078
ww	-6079
.)<	-6080
gen	-6081
wor	-6082
▁192	-6083
▁cru	-6084
▁dom	-6085
stery	-6086
▁Flor	-6087
▁core	-6088
▁jeal	-6089
▁surf	-6090
▁table	-6091
▁guilty	-6092
▁Vietnam	-6093
▁courage	-6094
▁passing	-6095
▁scenario	-6096
▁according	-6097
▁legendary	-6098
▁significant	-6099
weet	-6100
▁unp	-6101
▁Bett	-6102
▁Curt	-6103
▁cook	-6104
▁cust	-6105
▁diss	-6106
▁jobs	-6107
▁page	-6108
▁Devil	-6109
▁minds	-6110
▁toler	-6111
▁views	-6112
▁worry	-6113
▁During	-6114
▁device	-6115
▁gritty	-6116
Although	-6117
▁Freeman	-6118
▁haunted	-6119
▁heavily	-6120
▁trapped	-6121
▁variety	-6122
▁abandoned	-6123
▁California	-6124
▁necessarily	-6125
▁breathtaking	-6126
▁conversation	-6127
bit	-6128
oln	-6129
▁Gi	-6130
ease	-6131
reek	-6132
▁MST	-6133
mates	-6134
plays	-6135
plend	-6136
▁Wall	-6137
▁thro	-6138
▁About	-6139
▁dozen	-6140
▁wound	-6141
▁Sunday	-6142
▁intens	-6143
▁strict	-6144
▁magical	-6145
bid	-6146
hem	-6147
low	-6148
▁Old	-6149
▁scr	-6150
arant	-6151
▁(199	-6152
▁flow	-6153
Anyway	-6154
▁grues	-6155
▁teeth	-6156
▁Donald	-6157
▁paying	-6158
▁status	-6159
▁command	-6160
▁contact	-6161
▁decades	-6162
▁service	-6163
▁stomach	-6164
▁weekend	-6165
▁delivery	-6166
▁distinct	-6167
▁vampires	-6168
▁destroyed	-6169
▁Especially	-6170
ola	-6171
aust	-6172
iano	-6173
onda	-6174
▁ANY	-6175
▁Spr	-6176
▁ade	-6177
after	-6178
ronic	-6179
▁Your	-6180
▁evol	-6181
▁fond	-6182
▁heck	-6183
itious	-6184
▁ignor	-6185
▁inhab	-6186
▁integr	-6187
▁besides	-6188
▁confess	-6189
▁evident	-6190
▁veteran	-6191
▁ludicrous	-6192
▁complicated	-6193
IA	-6194
OP	-6195
").	-6196
▁Po	-6197
amor	-6198
rees	-6199
▁bab	-6200
▁gre	-6201
arden	-6202
enced	-6203
world	-6204
▁wand	-6205
ramatic	-6206
▁theory	-6207
▁sounded	-6208
▁pregnant	-6209
▁understood	-6210
tt	-6211
▁Bu	-6212
orig	-6213
▁***	-6214
▁Bog	-6215
▁ice	-6216
craft	-6217
▁Mill	-6218
called	-6219
incoln	-6220
▁Beaut	-6221
▁Carol	-6222
▁Sarah	-6223
outhern	-6224
▁Mexico	-6225
▁deeper	-6226
▁facial	-6227
▁placed	-6228
▁praise	-6229
▁anticip	-6230
▁closing	-6231
▁uniform	-6232
▁changing	-6233
▁murderer	-6234
▁settings	-6235
▁appreciated	-6236
case	-6237
iger	-6238
than	-6239
▁Jay	-6240
▁pan	-6241
▁Come	-6242
▁Sher	-6243
▁unbe	-6244
▁execut	-6245
▁answers	-6246
▁gruesome	-6247
▁profound	-6248
▁contribut	-6249
▁naturally	-6250
BO	-6251
IM	-6252
From	-6253
agal	-6254
fall	-6255
ught	-6256
▁Ret	-6257
▁ash	-6258
▁fet	-6259
▁fil	-6260
lover	-6261
▁Gand	-6262
▁blat	-6263
▁libr	-6264
▁lift	-6265
assion	-6266
entist	-6267
▁dress	-6268
▁metap	-6269
▁obnox	-6270
▁access	-6271
▁driven	-6272
▁extent	-6273
▁winner	-6274
▁renting	-6275
something	-6276
▁security	-6277
▁disbelief	-6278
▁listening	-6279
▁slapstick	-6280
des	-6281
▁Ob	-6282
IGHT	-6283
▁Inc	-6284
asant	-6285
erved	-6286
▁(200	-6287
▁Emma	-6288
▁Mean	-6289
▁blah	-6290
▁tear	-6291
▁Child	-6292
▁Movies	-6293
▁Rachel	-6294
▁Warner	-6295
▁advant	-6296
▁mature	-6297
atherine	-6298
▁Branagh	-6299
▁Mexican	-6300
▁funnier	-6301
▁greater	-6302
▁journal	-6303
▁welcome	-6304
▁depiction	-6305
▁description	-6306
ns	-6307
apl	-6308
hib	-6309
ito	-6310
oyd	-6311
▁1.	-6312
ethe	-6313
fess	-6314
▁/>(	-6315
ipped	-6316
▁India	-6317
▁disag	-6318
▁picks	-6319
▁prime	-6320
▁Killer	-6321
▁native	-6322
▁desperately	-6323
▁storytelling	-6324
imm	-6325
list	-6326
▁/>4	-6327
▁Cat	-6328
▁Cub	-6329
prise	-6330
▁(198	-6331
▁Back	-6332
▁Each	-6333
▁mere	-6334
▁tong	-6335
▁MOVIE	-6336
▁basis	-6337
▁buddy	-6338
▁chief	-6339
▁sides	-6340
ographer	-6341
▁choices	-6342
▁helping	-6343
▁miscast	-6344
▁touched	-6345
▁examples	-6346
▁treasure	-6347
▁stereotypical	-6348
EL	-6349
▁17	-6350
▁McG	-6351
▁Min	-6352
▁enh	-6353
▁ton	-6354
adays	-6355
aying	-6356
igned	-6357
▁hack	-6358
▁irre	-6359
▁Music	-6360
▁incor	-6361
▁handle	-6362
▁novels	-6363
▁preview	-6364
ibilities	-6365
▁originality	-6366
KE	-6367
ela	-6368
rol	-6369
zel	-6370
▁HA	-6371
aver	-6372
▁sea	-6373
ifies	-6374
▁Army	-6375
▁cand	-6376
▁isol	-6377
▁seve	-6378
coming	-6379
▁Enter	-6380
▁campy	-6381
▁chuck	-6382
▁divor	-6383
▁Brooks	-6384
▁causes	-6385
▁forest	-6386
▁lonely	-6387
▁Lincoln	-6388
▁comical	-6389
▁sisters	-6390
▁starred	-6391
▁properly	-6392
▁succeeds	-6393
▁President	-6394
▁extraordinary	-6395
oms	-6396
▁LOV	-6397
▁Roc	-6398
▁vir	-6399
▁Dean	-6400
▁Lost	-6401
▁kung	-6402
▁seek	-6403
▁wins	-6404
▁blown	-6405
▁repet	-6406
▁serve	-6407
▁vivid	-6408
▁wrest	-6409
ception	-6410
▁Sidney	-6411
▁consum	-6412
▁racist	-6413
▁throws	-6414
▁warned	-6415
!!!!!!!!	-6416
▁artists	-6417
▁critical	-6418
▁afternoon	-6419
▁reminiscent	-6420
▁international	-6421
Is	-6422
ico	-6423
uty	-6424
ucky	-6425
wyck	-6426
▁Lat	-6427
azing	-6428
▁Cole	-6429
▁Have	-6430
▁Marg	-6431
▁cous	-6432
▁Charl	-6433
iveness	-6434
oration	-6435
▁lights	-6436
▁mildly	-6437
▁reward	-6438
▁beloved	-6439
▁deliber	-6440
▁sheriff	-6441
▁musicals	-6442
▁prepared	-6443
▁criminals	-6444
▁screening	-6445
dimensional	-6446
▁department	-6447
ils	-6448
▁SO	-6449
ooge	-6450
▁Dep	-6451
▁Hon	-6452
▁Mic	-6453
▁Ned	-6454
Every	-6455
▁tiny	-6456
▁vast	-6457
rehens	-6458
▁China	-6459
▁femin	-6460
▁shape	-6461
tending	-6462
▁Cooper	-6463
▁Philip	-6464
▁caring	-6465
▁cheese	-6466
▁raised	-6467
etheless	-6468
▁carried	-6469
▁carries	-6470
▁summary	-6471
▁universe	-6472
▁sophistic	-6473
▁inspiration	-6474
▁introduction	-6475
Man	-6476
▁Die	-6477
▁Ire	-6478
▁Kid	-6479
▁ain	-6480
▁bow	-6481
▁mas	-6482
▁Take	-6483
▁argu	-6484
▁join	-6485
▁yell	-6486
except	-6487
▁Larry	-6488
▁Susan	-6489
▁crash	-6490
▁Friday	-6491
▁demand	-6492
breaking	-6493
▁subsequ	-6494
▁cultural	-6495
▁interact	-6496
▁condition	-6497
▁essential	-6498
▁homosexual	-6499
fun	-6500
▁Da	-6501
▁Pa	-6502
▁nu	-6503
▁Atl	-6504
▁Bac	-6505
▁arr	-6506
▁hip	-6507
▁ske	-6508
eston	-6509
osity	-6510
utter	-6511
Christ	-6512
ancing	-6513
▁Phill	-6514
▁enter	-6515
▁jumps	-6516
▁Direct	-6517
▁nation	-6518
▁quirky	-6519
▁splend	-6520
ustrated	-6521
▁Besides	-6522
▁contain	-6523
▁escapes	-6524
▁weapons	-6525
▁drinking	-6526
▁Otherwise	-6527
▁challenge	-6528
▁happiness	-6529
Dav	-6530
OOD	-6531
ieu	-6532
iko	-6533
zil	-6534
▁AL	-6535
char	-6536
ianc	-6537
kind	-6538
▁Dal	-6539
▁USA	-6540
▁Wid	-6541
▁sky	-6542
ilton	-6543
ouses	-6544
▁Ball	-6545
▁Lisa	-6546
▁Stud	-6547
▁Yeah	-6548
▁boot	-6549
▁rank	-6550
▁rule	-6551
semble	-6552
▁10/10	-6553
▁Alice	-6554
▁Julia	-6555
▁Julie	-6556
▁autom	-6557
▁wears	-6558
atholic	-6559
▁Knight	-6560
▁Virgin	-6561
▁purely	-6562
▁shadow	-6563
onscious	-6564
▁Sandler	-6565
▁arrives	-6566
▁halfway	-6567
▁install	-6568
▁related	-6569
utherland	-6570
▁enjoying	-6571
▁graphics	-6572
▁mountain	-6573
▁replaced	-6574
▁sinister	-6575
▁embarrassed	-6576
▁presentation	-6577
▁interpretation	-6578
Br	-6579
igr	-6580
alph	-6581
aste	-6582
eter	-6583
▁Son	-6584
▁dub	-6585
▁nom	-6586
▁rub	-6587
order	-6588
▁Nazi	-6589
▁Hardy	-6590
▁Under	-6591
Michael	-6592
ounding	-6593
▁Rogers	-6594
▁corpor	-6595
▁exists	-6596
▁ignore	-6597
▁concert	-6598
▁stylish	-6599
▁univers	-6600
▁breaking	-6601
▁carrying	-6602
▁friendly	-6603
▁psychiat	-6604
▁successfully	-6605
"?	-6606
By	-6607
CT	-6608
▁Ap	-6609
▁Ty	-6610
oooo	-6611
▁Arn	-6612
▁Bak	-6613
▁Sir	-6614
umber	-6615
▁(197	-6616
▁Reed	-6617
▁adop	-6618
▁torn	-6619
penter	-6620
▁Matth	-6621
▁cases	-6622
▁enemy	-6623
▁indie	-6624
▁steps	-6625
▁suffe	-6626
▁Miller	-6627
▁border	-6628
▁resist	-6629
▁rights	-6630
▁sleazy	-6631
▁virgin	-6632
▁Channel	-6633
▁everyday	-6634
▁mentally	-6635
▁Basically	-6636
▁Elizabeth	-6637
▁confusion	-6638
▁daughters	-6639
▁obnoxious	-6640
▁reference	-6641
▁attempting	-6642
▁determined	-6643
ago	-6644
beit	-6645
▁MAN	-6646
style	-6647
▁lazy	-6648
▁risk	-6649
▁Maria	-6650
▁raise	-6651
ielberg	-6652
▁Person	-6653
▁deadly	-6654
▁portra	-6655
▁timing	-6656
▁ratings	-6657
▁attacked	-6658
▁throwing	-6659
▁adventures	-6660
▁productions	-6661
/1	-6662
Des	-6663
Who	-6664
ira	-6665
▁cy	-6666
▁ul	-6667
▁vi	-6668
aped	-6669
iner	-6670
▁Lem	-6671
▁Rec	-6672
▁via	-6673
Watch	-6674
▁Soon	-6675
▁Swed	-6676
▁Vamp	-6677
▁anal	-6678
▁pool	-6679
spired	-6680
▁Power	-6681
▁clips	-6682
▁goofy	-6683
▁magaz	-6684
▁charge	-6685
▁calling	-6686
▁guarant	-6687
▁spoiler	-6688
▁horrific	-6689
▁intensity	-6690
ams	-6691
hay	-6692
..."	-6693
roph	-6694
▁Alt	-6695
▁Wes	-6696
▁bon	-6697
actic	-6698
▁Beck	-6699
▁arms	-6700
▁decl	-6701
▁dign	-6702
▁dogs	-6703
▁grim	-6704
▁pupp	-6705
▁topic	-6706
▁Holmes	-6707
▁ashamed	-6708
▁immense	-6709
▁accompan	-6710
▁neighborhood	-6711
US	-6712
zed	-6713
Paul	-6714
ibal	-6715
rial	-6716
▁Cus	-6717
erior	-6718
going	-6719
verse	-6720
▁bill	-6721
▁laid	-6722
▁Tracy	-6723
▁coinc	-6724
▁disgu	-6725
▁relax	-6726
▁stops	-6727
anchise	-6728
▁driver	-6729
▁titles	-6730
▁wishes	-6731
▁balance	-6732
▁princip	-6733
▁refuses	-6734
▁revolves	-6735
▁atmospher	-6736
▁nightmare	-6737
50	-6738
Let	-6739
aze	-6740
die	-6741
mod	-6742
fits	-6743
lynn	-6744
rael	-6745
umbs	-6746
▁ped	-6747
isand	-6748
lance	-6749
▁Shar	-6750
▁Turn	-6751
▁Three	-6752
▁chair	-6753
▁cheer	-6754
▁grave	-6755
▁Bettie	-6756
▁Jewish	-6757
▁served	-6758
▁dislike	-6759
▁Stanwyck	-6760
▁Sullivan	-6761
▁fabulous	-6762
▁overcome	-6763
▁regarding	-6764
▁struggles	-6765
▁established	-6766
▁expressions	-6767
▁sentimental	-6768
CK	-6769
Mar	-6770
ety	-6771
ila	-6772
rab	-6773
▁NY	-6774
eral	-6775
▁Hal	-6776
iques	-6777
story	-6778
▁Rick	-6779
▁lust	-6780
iamond	-6781
ogical	-6782
▁cance	-6783
▁stunt	-6784
cellent	-6785
▁attend	-6786
▁Stanley	-6787
▁horrend	-6788
▁mansion	-6789
▁plastic	-6790
ification	-6791
▁learning	-6792
▁poignant	-6793
▁retarded	-6794
▁advantage	-6795
▁frequently	-6796
▁terrifying	-6797
▁imaginative	-6798
vira	-6799
▁Nel	-6800
▁Raj	-6801
▁Ren	-6802
▁slo	-6803
vably	-6804
▁Lore	-6805
▁neck	-6806
▁phen	-6807
▁trap	-6808
iments	-6809
▁elder	-6810
▁tense	-6811
▁Dennis	-6812
gettable	-6813
▁cynical	-6814
▁credible	-6815
▁sleeping	-6816
▁stupidity	-6817
▁thrilling	-6818
▁Sutherland	-6819
▁interviews	-6820
▁credibility	-6821
▁personalities	-6822
1,	-6823
3)	-6824
ONE	-6825
can	-6826
jud	-6827
▁ho	-6828
erek	-6829
▁FBI	-6830
ulate	-6831
▁dece	-6832
▁inco	-6833
▁mock	-6834
▁puzz	-6835
▁Award	-6836
▁Chapl	-6837
▁angle	-6838
▁arrog	-6839
▁locked	-6840
▁tongue	-6841
▁prevent	-6842
▁amazingly	-6843
▁obsession	-6844
3,	-6845
▁Sav	-6846
adget	-6847
impse	-6848
inate	-6849
place	-6850
worth	-6851
▁dude	-6852
▁fulf	-6853
mitted	-6854
▁innov	-6855
▁shark	-6856
forward	-6857
▁drives	-6858
▁spoken	-6859
▁weight	-6860
▁attacks	-6861
▁glimpse	-6862
▁greatly	-6863
▁rolling	-6864
mentioned	-6865
▁comedian	-6866
▁guessing	-6867
▁countries	-6868
▁technique	-6869
▁Definitely	-6870
▁uncomfortable	-6871
vo	-6872
ugh	-6873
ulk	-6874
▁BL	-6875
berl	-6876
fire	-6877
estly	-6878
watch	-6879
▁Burt	-6880
▁legs	-6881
▁sket	-6882
liners	-6883
▁Baker	-6884
▁tempt	-6885
▁traum	-6886
▁trite	-6887
▁Matrix	-6888
▁Police	-6889
▁flawed	-6890
▁lesser	-6891
▁Britain	-6892
▁amongst	-6893
▁minimal	-6894
▁patient	-6895
▁wasting	-6896
▁ensemble	-6897
▁mindless	-6898
▁suffered	-6899
▁ourselves	-6900
sch	-6901
fest	-6902
inge	-6903
sett	-6904
▁90'	-6905
▁Guy	-6906
▁Rep	-6907
▁eth	-6908
▁Drag	-6909
▁True	-6910
▁butt	-6911
▁tree	-6912
inally	-6913
▁Brend	-6914
▁Produ	-6915
▁invis	-6916
▁Brando	-6917
▁Leslie	-6918
▁betray	-6919
▁ironic	-6920
▁Someone	-6921
▁Vincent	-6922
▁alright	-6923
▁manager	-6924
▁medical	-6925
▁notable	-6926
▁weakness	-6927
▁Rochester	-6928
▁Spielberg	-6929
▁enjoyment	-6930
▁marvelous	-6931
2)	-6932
aki	-6933
arm	-6934
yre	-6935
▁'7	-6936
▁Di	-6937
▁LI	-6938
amie	-6939
iled	-6940
ooky	-6941
▁Sol	-6942
▁raw	-6943
▁unh	-6944
▁Greg	-6945
▁Oliv	-6946
ipping	-6947
▁Ralph	-6948
▁irony	-6949
▁Israel	-6950
▁Living	-6951
▁adding	-6952
▁fallen	-6953
▁ghosts	-6954
▁shines	-6955
▁shorts	-6956
▁Matthau	-6957
▁Widmark	-6958
▁triumph	-6959
▁wealthy	-6960
▁separate	-6961
▁Meanwhile	-6962
▁controversial	-6963
LD	-6964
TER	-6965
▁DE	-6966
▁Ra	-6967
inci	-6968
acter	-6969
orses	-6970
▁exer	-6971
▁Blair	-6972
▁Ghost	-6973
▁Italy	-6974
▁admir	-6975
▁aston	-6976
▁choos	-6977
▁enorm	-6978
▁equal	-6979
▁trial	-6980
▁Burton	-6981
▁Claire	-6982
▁announ	-6983
▁opened	-6984
▁parall	-6985
▁unfold	-6986
▁Jessica	-6987
▁conspir	-6988
▁Michelle	-6989
▁gripping	-6990
▁nowadays	-6991
▁suggests	-6992
▁franchise	-6993
▁initially	-6994
▁innocence	-6995
▁spiritual	-6996
▁physically	-6997
▁exceptional	-6998
▁protagonists	-6999
end	-7000
llo	-7001
obb	-7002
▁**	-7003
Will	-7004
from	-7005
iffe	-7006
phan	-7007
utch	-7008
▁Nol	-7009
▁Run	-7010
▁rat	-7011
▁Geor	-7012
▁Kurt	-7013
▁Land	-7014
▁Lion	-7015
▁WWII	-7016
▁gain	-7017
▁tune	-7018
▁caric	-7019
▁noted	-7020
▁oblig	-7021
▁occup	-7022
▁queen	-7023
▁robot	-7024
▁REALLY	-7025
▁Unlike	-7026
▁elabor	-7027
▁mechan	-7028
▁unbear	-7029
▁weapon	-7030
▁Andrews	-7031
▁scripts	-7032
▁chilling	-7033
▁consists	-7034
▁develops	-7035
▁Streisand	-7036
▁connected	-7037
▁thousands	-7038
▁perfection	-7039
▁atmospheric	-7040
?),	-7041
hard	-7042
hold	-7043
inda	-7044
wife	-7045
▁Ken	-7046
▁Veg	-7047
▁spy	-7048
attan	-7049
▁budd	-7050
▁tied	-7051
ements	-7052
▁Candy	-7053
▁broke	-7054
▁miles	-7055
▁sings	-7056
▁spots	-7057
▁stumb	-7058
▁Church	-7059
▁Intern	-7060
▁Seagal	-7061
▁gather	-7062
▁Chaplin	-7063
▁annoyed	-7064
▁dubbing	-7065
▁sympath	-7066
▁SPOILERS	-7067
▁hundreds	-7068
▁Carpenter	-7069
▁Something	-7070
▁sexuality	-7071
BS	-7072
bra	-7073
cut	-7074
his	-7075
ket	-7076
lee	-7077
▁Hy	-7078
▁Ow	-7079
▁PL	-7080
inch	-7081
writ	-7082
▁Daw	-7083
▁Fay	-7084
▁Fle	-7085
▁Our	-7086
▁Ree	-7087
▁inj	-7088
▁tow	-7089
annon	-7090
▁Home	-7091
▁Iran	-7092
▁Rand	-7093
▁meat	-7094
▁myst	-7095
▁nose	-7096
▁remo	-7097
itanic	-7098
▁Camer	-7099
▁widow	-7100
▁Nelson	-7101
▁Oscars	-7102
▁aliens	-7103
▁cameos	-7104
▁mirror	-7105
▁neighb	-7106
▁presum	-7107
▁racism	-7108
▁states	-7109
▁belongs	-7110
▁lessons	-7111
▁lovable	-7112
▁accepted	-7113
▁darkness	-7114
▁progress	-7115
▁Bollywood	-7116
▁assistant	-7117
▁meaningful	-7118
▁performers	-7119
1.	-7120
5.	-7121
ez	-7122
awa	-7123
ocr	-7124
onne	-7125
▁WOR	-7126
retty	-7127
▁fest	-7128
▁firm	-7129
idents	-7130
▁Flynn	-7131
▁aired	-7132
▁backd	-7133
▁guilt	-7134
▁hoped	-7135
▁thick	-7136
▁General	-7137
▁Roberts	-7138
▁specific	-7139
▁Universal	-7140
▁screenwriter	-7141
unn	-7142
Good	-7143
acre	-7144
only	-7145
oops	-7146
when	-7147
▁BAD	-7148
▁Dad	-7149
opath	-7150
udson	-7151
▁Port	-7152
▁Scar	-7153
▁cock	-7154
▁eleg	-7155
▁reli	-7156
comedy	-7157
▁Griff	-7158
▁activ	-7159
▁lying	-7160
▁storm	-7161
emption	-7162
ologist	-7163
▁hiding	-7164
▁larger	-7165
▁turkey	-7166
▁beating	-7167
▁letting	-7168
▁splendid	-7169
Ad	-7170
Fr	-7171
Mr	-7172
UL	-7173
aky	-7174
ype	-7175
ocal	-7176
rett	-7177
seud	-7178
▁60'	-7179
▁Aud	-7180
▁Cow	-7181
▁Lum	-7182
▁cha	-7183
▁Boll	-7184
▁Lucy	-7185
ifying	-7186
rified	-7187
▁adequ	-7188
▁beach	-7189
▁finan	-7190
▁metal	-7191
▁proof	-7192
▁Arnold	-7193
▁Foster	-7194
▁Friend	-7195
▁Heaven	-7196
▁afford	-7197
▁perpet	-7198
▁smooth	-7199
▁idiotic	-7200
▁pointed	-7201
▁concerns	-7202
▁segments	-7203
▁superfic	-7204
▁endearing	-7205
▁intention	-7206
len	-7207
mit	-7208
avor	-7209
elve	-7210
hest	-7211
loyd	-7212
udge	-7213
eremy	-7214
▁Buck	-7215
▁Goth	-7216
▁unre	-7217
▁Class	-7218
▁Derek	-7219
▁ambig	-7220
▁sends	-7221
▁solve	-7222
▁toile	-7223
▁ultra	-7224
▁wanna	-7225
▁Glover	-7226
▁Things	-7227
▁Walken	-7228
▁hooked	-7229
▁horses	-7230
▁surviv	-7231
ographic	-7232
▁battles	-7233
▁dialogs	-7234
▁Probably	-7235
▁achieved	-7236
▁disagree	-7237
▁explicit	-7238
▁infamous	-7239
▁national	-7240
▁troubled	-7241
▁broadcast	-7242
▁complaint	-7243
OD	-7244
1/2	-7245
ELL	-7246
gun	-7247
▁:)	-7248
imag	-7249
ingu	-7250
▁flu	-7251
▁rhy	-7252
David	-7253
asion	-7254
umble	-7255
▁1930	-7256
horror	-7257
▁Bette	-7258
▁Lucas	-7259
▁afore	-7260
▁drown	-7261
▁stiff	-7262
▁Curtis	-7263
▁jungle	-7264
▁preach	-7265
▁essence	-7266
▁seeking	-7267
▁portrait	-7268
▁expensive	-7269
▁appearances	-7270
▁underground	-7271
hh	-7272
hew	-7273
too	-7274
▁Az	-7275
▁EN	-7276
aude	-7277
cies	-7278
hill	-7279
ooby	-7280
urse	-7281
▁Cel	-7282
▁Gen	-7283
▁bik	-7284
▁tax	-7285
▁1990	-7286
▁Blue	-7287
▁dump	-7288
▁farm	-7289
▁guts	-7290
▁mont	-7291
entric	-7292
ograph	-7293
▁Elvis	-7294
▁Krist	-7295
▁daily	-7296
▁dealt	-7297
▁eager	-7298
▁entry	-7299
▁knife	-7300
▁saves	-7301
▁upper	-7302
▁chases	-7303
▁dinner	-7304
▁ripped	-7305
▁comfort	-7306
▁dragged	-7307
▁happily	-7308
▁charisma	-7309
▁homeless	-7310
▁official	-7311
▁disappear	-7312
▁searching	-7313
▁incoherent	-7314
ANT	-7315
▁24	-7316
ogue	-7317
rich	-7318
▁Age	-7319
▁Din	-7320
▁Fel	-7321
▁Tem	-7322
▁oil	-7323
adows	-7324
brick	-7325
conom	-7326
ellar	-7327
gging	-7328
plete	-7329
▁2000	-7330
▁Were	-7331
▁aged	-7332
▁goal	-7333
▁hole	-7334
Arthur	-7335
▁Hanks	-7336
▁Helen	-7337
▁devil	-7338
▁eerie	-7339
▁split	-7340
▁urban	-7341
▁Cusack	-7342
▁abrupt	-7343
▁infect	-7344
▁switch	-7345
▁Eastwood	-7346
▁checking	-7347
▁inexplic	-7348
▁striking	-7349
▁competent	-7350
▁thrillers	-7351
▁unforgettable	-7352
Tw	-7353
?).	-7354
vest	-7355
▁Hot	-7356
▁2006	-7357
▁Reyn	-7358
▁hill	-7359
▁vent	-7360
ctions	-7361
oilers	-7362
▁Along	-7363
▁newsp	-7364
▁plant	-7365
▁pseud	-7366
▁Family	-7367
▁School	-7368
▁covers	-7369
▁ingred	-7370
▁plague	-7371
▁shoots	-7372
▁spread	-7373
▁tender	-7374
▁boredom	-7375
▁crafted	-7376
▁restaur	-7377
▁colorful	-7378
▁reactions	-7379
▁techniques	-7380
9.	-7381
EAD	-7382
aka	-7383
hoe	-7384
agan	-7385
imum	-7386
lear	-7387
▁Mom	-7388
▁agg	-7389
▁alt	-7390
▁gal	-7391
acked	-7392
iable	-7393
ierce	-7394
▁Bach	-7395
▁Club	-7396
▁Kirk	-7397
▁Mann	-7398
▁Such	-7399
▁cere	-7400
▁folk	-7401
iently	-7402
▁Grace	-7403
▁Point	-7404
▁burst	-7405
▁grows	-7406
asingly	-7407
enstein	-7408
ishment	-7409
uristic	-7410
▁Heston	-7411
▁incons	-7412
▁poster	-7413
▁rushed	-7414
▁sevent	-7415
▁territ	-7416
▁thread	-7417
▁tricks	-7418
▁Karloff	-7419
▁explore	-7420
▁tribute	-7421
▁millions	-7422
▁sexually	-7423
▁Obviously	-7424
▁countless	-7425
▁strangely	-7426
rep	-7427
afia	-7428
iber	-7429
idel	-7430
rell	-7431
▁III	-7432
▁Ira	-7433
▁Jac	-7434
▁lur	-7435
icker	-7436
▁busy	-7437
▁webs	-7438
iation	-7439
minute	-7440
uclear	-7441
▁Check	-7442
▁Princ	-7443
▁quote	-7444
▁wreck	-7445
ambling	-7446
▁Hudson	-7447
▁cousin	-7448
▁repeat	-7449
▁resour	-7450
▁shower	-7451
▁stunts	-7452
▁closely	-7453
▁basement	-7454
▁stronger	-7455
▁transfer	-7456
▁carefully	-7457
▁hopefully	-7458
▁professor	-7459
▁horrendous	-7460
▁represents	-7461
▁surrounded	-7462
▁surrounding	-7463
▁photographer	-7464
OK	-7465
alo	-7466
rig	-7467
umm	-7468
via	-7469
▁AT	-7470
▁Fu	-7471
book	-7472
▁Lam	-7473
▁Mid	-7474
atisf	-7475
ushes	-7476
▁Lake	-7477
▁Lane	-7478
▁feed	-7479
▁fish	-7480
▁poet	-7481
▁sons	-7482
atures	-7483
redict	-7484
urious	-7485
▁Lloyd	-7486
▁fears	-7487
▁limit	-7488
▁virus	-7489
▁walls	-7490
▁occurs	-7491
▁stated	-7492
▁thirty	-7493
▁detract	-7494
▁exercise	-7495
▁messages	-7496
▁requires	-7497
▁intentions	-7498
▁charismatic	-7499
5,	-7500
rd	-7501
BLE	-7502
Con	-7503
ata	-7504
new	-7505
why	-7506
allo	-7507
cket	-7508
erty	-7509
onse	-7510
▁Cry	-7511
▁fra	-7512
▁tag	-7513
arter	-7514
▁Jake	-7515
▁Kath	-7516
▁Mass	-7517
▁toss	-7518
direct	-7519
ifting	-7520
riller	-7521
▁Andre	-7522
▁Chuck	-7523
▁Laura	-7524
▁Woman	-7525
▁drags	-7526
▁fired	-7527
▁Canada	-7528
▁dramas	-7529
▁easier	-7530
Director	-7531
▁madness	-7532
▁stretch	-7533
▁attached	-7534
▁identify	-7535
▁phenomen	-7536
▁suspects	-7537
▁thousand	-7538
▁vacation	-7539
▁Seriously	-7540
▁attempted	-7541
Bra	-7542
ato	-7543
bal	-7544
den	-7545
ibl	-7546
oni	-7547
ora	-7548
▁MU	-7549
thew	-7550
▁Dev	-7551
▁End	-7552
▁Kap	-7553
▁Log	-7554
▁mes	-7555
....<	-7556
dated	-7557
plots	-7558
▁Fire	-7559
▁elev	-7560
▁exch	-7561
anging	-7562
ointed	-7563
▁Water	-7564
▁notch	-7565
▁Acting	-7566
▁Doctor	-7567
▁fourth	-7568
▁videos	-7569
▁wicked	-7570
▁adapted	-7571
▁library	-7572
▁workers	-7573
▁projects	-7574
▁believing	-7575
▁elsewhere	-7576
▁brilliance	-7577
▁inevitable	-7578
▁profession	-7579
▁increasingly	-7580
cil	-7581
orc	-7582
▁PG	-7583
gain	-7584
udos	-7585
▁Air	-7586
▁Bol	-7587
▁Gal	-7588
▁Imp	-7589
▁shy	-7590
accur	-7591
chell	-7592
works	-7593
▁Falk	-7594
▁Roll	-7595
▁imit	-7596
▁wave	-7597
ructed	-7598
▁Miike	-7599
▁Sorry	-7600
▁Witch	-7601
▁cabin	-7602
▁domin	-7603
▁kicks	-7604
▁strip	-7605
▁Ritter	-7606
▁econom	-7607
▁flight	-7608
▁restra	-7609
existent	-7610
▁conclud	-7611
▁fortune	-7612
▁handful	-7613
▁network	-7614
▁thrills	-7615
▁Reynolds	-7616
▁relevant	-7617
▁spending	-7618
▁president	-7619
▁acceptable	-7620
▁associated	-7621
▁attraction	-7622
▁encounters	-7623
hs	-7624
hey	-7625
nes	-7626
obe	-7627
pse	-7628
fact	-7629
iors	-7630
odes	-7631
quis	-7632
such	-7633
unky	-7634
▁Reg	-7635
▁wra	-7636
entin	-7637
▁Brid	-7638
▁depe	-7639
▁hype	-7640
▁rain	-7641
▁ramp	-7642
acters	-7643
pieces	-7644
▁Would	-7645
▁alike	-7646
▁etern	-7647
▁honor	-7648
▁stood	-7649
▁Carter	-7650
▁corner	-7651
▁enters	-7652
▁riding	-7653
▁vulner	-7654
▁dropped	-7655
▁pleased	-7656
▁killings	-7657
▁appearing	-7658
▁importance	-7659
Gr	-7660
Tr	-7661
Per	-7662
nic	-7663
▁MA	-7664
ambo	-7665
mann	-7666
ords	-7667
▁Cox	-7668
▁Hug	-7669
▁Los	-7670
orrow	-7671
woman	-7672
▁Give	-7673
▁Real	-7674
▁Ring	-7675
▁cave	-7676
▁jerk	-7677
▁ruth	-7678
anting	-7679
handed	-7680
itchen	-7681
rifice	-7682
▁Carrey	-7683
▁Dawson	-7684
▁Elvira	-7685
▁Golden	-7686
▁Indeed	-7687
▁dollar	-7688
▁medium	-7689
▁suburb	-7690
ccentric	-7691
▁Science	-7692
▁chasing	-7693
▁selfish	-7694
▁torment	-7695
▁useless	-7696
▁Whatever	-7697
▁childish	-7698
▁Nightmare	-7699
▁worthless	-7700
▁importantly	-7701
El	-7702
cul	-7703
roy	-7704
tte	-7705
cont	-7706
igan	-7707
race	-7708
urai	-7709
▁Bus	-7710
▁Rub	-7711
▁hes	-7712
▁une	-7713
kshay	-7714
▁Conn	-7715
▁Kane	-7716
▁Navy	-7717
▁hipp	-7718
▁moon	-7719
▁nuts	-7720
▁push	-7721
▁wann	-7722
itizen	-7723
▁Could	-7724
▁Satan	-7725
▁faced	-7726
▁fianc	-7727
▁unple	-7728
▁Hunter	-7729
▁Planet	-7730
▁crimes	-7731
▁crisis	-7732
original	-7733
▁Astaire	-7734
▁advance	-7735
▁fitting	-7736
▁precise	-7737
▁realise	-7738
▁Consider	-7739
▁stranger	-7740
▁wondered	-7741
▁Australia	-7742
▁instantly	-7743
▁kidnapped	-7744
▁performing	-7745
▁tremendous	-7746
Unfortunately	-7747
▁aforementioned	-7748
!.	-7749
7.	-7750
lon	-7751
kick	-7752
stop	-7753
▁Acc	-7754
▁Dom	-7755
▁Res	-7756
▁reb	-7757
Maybe	-7758
shine	-7759
▁Cook	-7760
▁Gabr	-7761
▁Spir	-7762
▁wake	-7763
uments	-7764
▁Bobby	-7765
▁Brook	-7766
▁Clint	-7767
▁Bakshi	-7768
▁Cinema	-7769
▁Father	-7770
▁Muslim	-7771
▁Secret	-7772
▁bridge	-7773
▁homage	-7774
▁insist	-7775
▁listed	-7776
▁toilet	-7777
▁breasts	-7778
▁Catholic	-7779
▁creation	-7780
▁flawless	-7781
▁appalling	-7782
▁insulting	-7783
▁philosoph	-7784
▁pleasantly	-7785
▁revelation	-7786
▁scientists	-7787
▁individuals	-7788
▁superficial	-7789
ado	-7790
agn	-7791
icop	-7792
issy	-7793
▁FOR	-7794
▁Hop	-7795
▁Ice	-7796
▁Met	-7797
▁pig	-7798
▁sam	-7799
agney	-7800
inent	-7801
▁Need	-7802
▁Wind	-7803
▁Burns	-7804
▁Domin	-7805
▁Think	-7806
▁bucks	-7807
▁labor	-7808
▁loser	-7809
itchell	-7810
▁Comedy	-7811
▁Korean	-7812
▁Mother	-7813
▁conven	-7814
▁dancer	-7815
▁drivel	-7816
▁letter	-7817
▁pushed	-7818
▁talked	-7819
▁briefly	-7820
▁illustr	-7821
▁inaccur	-7822
▁menacing	-7823
▁attracted	-7824
▁resolution	-7825
▁destruction	-7826
▁nonetheless	-7827
▁investigation	-7828
▁sophisticated	-7829
sl	-7830
ux	-7831
AIN	-7832
ERE	-7833
ran	-7834
urg	-7835
van	-7836
▁Ah	-7837
▁SU	-7838
isms	-7839
▁Alf	-7840
▁GRE	-7841
▁Pan	-7842
▁hun	-7843
acted	-7844
grade	-7845
icing	-7846
ortal	-7847
▁Cont	-7848
▁Poor	-7849
▁Shep	-7850
▁dare	-7851
▁dust	-7852
▁gift	-7853
▁tons	-7854
......	-7855
▁rocks	-7856
▁warri	-7857
▁beings	-7858
▁cowboy	-7859
▁height	-7860
▁robber	-7861
▁select	-7862
▁strang	-7863
▁Dorothy	-7864
▁artific	-7865
▁disease	-7866
▁jealous	-7867
▁nuclear	-7868
▁opposed	-7869
▁persona	-7870
▁wonders	-7871
▁allowing	-7872
▁argument	-7873
▁creators	-7874
▁mistaken	-7875
▁planning	-7876
▁Francisco	-7877
▁curiosity	-7878
▁slightest	-7879
▁superhero	-7880
▁repetitive	-7881
▁consequences	-7882
,,	-7883
80	-7884
nda	-7885
oto	-7886
ped	-7887
▁Id	-7888
Jack	-7889
ixon	-7890
pses	-7891
quel	-7892
▁ABC	-7893
▁Cre	-7894
▁Eva	-7895
▁Has	-7896
▁Scr	-7897
▁gee	-7898
▁nut	-7899
▁Ever	-7900
▁Play	-7901
▁bold	-7902
▁jack	-7903
▁judg	-7904
erning	-7905
isions	-7906
▁Mitch	-7907
▁beast	-7908
▁champ	-7909
▁grasp	-7910
spector	-7911
▁Almost	-7912
▁buried	-7913
▁convol	-7914
▁editor	-7915
▁lacked	-7916
▁packed	-7917
ertainly	-7918
icularly	-7919
▁Leonard	-7920
▁forgive	-7921
▁holiday	-7922
▁reunion	-7923
▁watches	-7924
▁incompet	-7925
▁Catherine	-7926
▁invisible	-7927
▁secretary	-7928
▁unpleasant	-7929
▁accomplished	-7930
▁psychiatrist	-7931
60	-7932
ala	-7933
ipe	-7934
obi	-7935
Rich	-7936
corn	-7937
type	-7938
▁Mas	-7939
▁Ten	-7940
▁alb	-7941
▁jew	-7942
▁Ruth	-7943
▁Shaw	-7944
▁carn	-7945
▁Farre	-7946
▁cared	-7947
veloped	-7948
writers	-7949
▁Atlant	-7950
▁Cagney	-7951
▁Silver	-7952
▁reluct	-7953
▁struck	-7954
▁replace	-7955
▁subplot	-7956
▁stealing	-7957
▁ambitious	-7958
▁remaining	-7959
▁outrageous	-7960
▁overlooked	-7961
▁captivating	-7962
▁directorial	-7963
▁exaggerated	-7964
▁installment	-7965
▁photographed	-7966
'.<	-7967
raw	-7968
elli	-7969
uate	-7970
▁10,	-7971
▁50'	-7972
▁Arm	-7973
▁Kaz	-7974
▁row	-7975
iders	-7976
inder	-7977
lines	-7978
oiler	-7979
think	-7980
▁Made	-7981
▁Mild	-7982
▁Next	-7983
▁bust	-7984
▁dire	-7985
hoeven	-7986
▁Grade	-7987
▁Uncle	-7988
▁raped	-7989
▁shout	-7990
▁Franco	-7991
▁beaten	-7992
▁borrow	-7993
▁estate	-7994
▁hearts	-7995
▁strike	-7996
▁Brosnan	-7997
▁Kubrick	-7998
▁bullets	-7999
▁fifteen	-8000
▁hitting	-8001
▁hunting	-8002
▁generous	-8003
▁overdone	-8004
▁response	-8005
▁timeless	-8006
▁continued	-8007
▁inspiring	-8008
▁miserably	-8009
▁revealing	-8010
▁Personally	-8011
▁redemption	-8012
▁subsequent	-8013
▁competition	-8014
▁melodramatic	-8015
▁documentaries	-8016
2,	-8017
30	-8018
Ex	-8019
▁pa	-8020
Here	-8021
aled	-8022
aris	-8023
erto	-8024
seen	-8025
▁1/2	-8026
▁CIA	-8027
aning	-8028
▁Bart	-8029
▁Neil	-8030
▁chap	-8031
▁embr	-8032
▁styl	-8033
▁clues	-8034
▁farce	-8035
▁Denzel	-8036
▁absorb	-8037
▁ticket	-8038
▁Picture	-8039
▁dignity	-8040
▁factory	-8041
▁pulling	-8042
▁reduced	-8043
istically	-8044
▁morality	-8045
▁strictly	-8046
▁eccentric	-8047
▁technically	-8048
9,	-8049
sex	-8050
keys	-8051
▁saf	-8052
▁toy	-8053
anski	-8054
estic	-8055
▁Fall	-8056
▁Mach	-8057
▁grou	-8058
▁hung	-8059
▁prec	-8060
▁prev	-8061
▁tool	-8062
ablish	-8063
bidden	-8064
ration	-8065
▁Felix	-8066
▁Films	-8067
▁NEVER	-8068
▁Sally	-8069
▁brand	-8070
▁draws	-8071
▁ingen	-8072
▁venge	-8073
▁wheel	-8074
isation	-8075
▁Davies	-8076
▁Fisher	-8077
▁Scooby	-8078
▁darker	-8079
▁sticks	-8080
▁accused	-8081
▁elderly	-8082
▁ignored	-8083
▁obscure	-8084
ventually	-8085
▁Goldberg	-8086
▁Verhoeven	-8087
▁intrigued	-8088
▁territory	-8089
▁compassion	-8090
▁frustrated	-8091
▁uninspired	-8092
1)	-8093
4,	-8094
8.	-8095
ds	-8096
AND	-8097
aga	-8098
rer	-8099
▁5.	-8100
▁Ma	-8101
abel	-8102
cula	-8103
ophy	-8104
oric	-8105
▁Net	-8106
paced	-8107
video	-8108
wered	-8109
▁Book	-8110
▁Cost	-8111
▁Josh	-8112
▁abys	-8113
▁corn	-8114
▁diff	-8115
▁hire	-8116
▁hunt	-8117
▁intr	-8118
▁nine	-8119
▁sail	-8120
▁wrap	-8121
ingers	-8122
ortion	-8123
terday	-8124
weight	-8125
▁Natal	-8126
▁areas	-8127
▁bleak	-8128
▁chest	-8129
▁exhib	-8130
▁inher	-8131
▁marks	-8132
▁obser	-8133
▁ought	-8134
▁patri	-8135
▁shall	-8136
▁tales	-8137
Despite	-8138
Finally	-8139
▁Craven	-8140
▁Jeremy	-8141
▁Rather	-8142
▁addict	-8143
▁comics	-8144
▁string	-8145
▁Cameron	-8146
▁assault	-8147
▁logical	-8148
▁vicious	-8149
▁admitted	-8150
▁superbly	-8151
▁convoluted	-8152
▁discussion	-8153
▁motivation	-8154
▁achievement	-8155
▁grandmother	-8156
▁unintentionally	-8157
En	-8158
iar	-8159
plo	-8160
sky	-8161
HING	-8162
Like	-8163
also	-8164
obal	-8165
onym	-8166
rase	-8167
uity	-8168
▁Ful	-8169
▁Nic	-8170
▁duo	-8171
ilted	-8172
izard	-8173
▁8/10	-8174
▁Robb	-8175
▁gimm	-8176
▁hood	-8177
▁maid	-8178
▁slim	-8179
hattan	-8180
▁Perry	-8181
▁Wells	-8182
▁candy	-8183
▁chain	-8184
▁clown	-8185
▁stead	-8186
▁suits	-8187
▁Laurel	-8188
▁defend	-8189
▁horrid	-8190
▁spooky	-8191
▁conserv	-8192
▁helicop	-8193
▁outcome	-8194
▁politic	-8195
▁require	-8196
▁spoiled	-8197
▁distance	-8198
▁magazine	-8199
▁returned	-8200
▁Alexander	-8201
▁cardboard	-8202
▁elaborate	-8203
▁sacrifice	-8204
▁hysterical	-8205
▁reasonable	-8206
▁reasonably	-8207
igo	-8208
▁SN	-8209
mail	-8210
nery	-8211
otal	-8212
tain	-8213
town	-8214
▁Ale	-8215
▁Dri	-8216
▁Est	-8217
▁gar	-8218
▁tea	-8219
ables	-8220
verty	-8221
▁1960	-8222
▁Eyre	-8223
▁Grey	-8224
▁Mars	-8225
▁Mupp	-8226
▁frag	-8227
Robert	-8228
▁aimed	-8229
▁angel	-8230
▁cried	-8231
▁noble	-8232
▁rapid	-8233
▁stone	-8234
because	-8235
▁boxing	-8236
▁partly	-8237
▁premie	-8238
▁relent	-8239
▁throat	-8240
▁distant	-8241
▁failing	-8242
▁pretend	-8243
▁whoever	-8244
▁worried	-8245
▁arrested	-8246
▁bathroom	-8247
▁collabor	-8248
▁internet	-8249
▁lifetime	-8250
rehensible	-8251
▁landscape	-8252
▁notorious	-8253
▁unbearable	-8254
jo	-8255
yc	-8256
▁;	-8257
Int	-8258
aws	-8259
box	-8260
dri	-8261
▁..	-8262
▁SC	-8263
Char	-8264
hour	-8265
itar	-8266
rink	-8267
▁Abs	-8268
▁Gun	-8269
▁Sab	-8270
▁fox	-8271
Where	-8272
olves	-8273
▁Hind	-8274
▁Norm	-8275
▁Rome	-8276
▁asse	-8277
▁dict	-8278
▁iron	-8279
▁nail	-8280
▁sedu	-8281
oubted	-8282
urance	-8283
▁blank	-8284
▁blend	-8285
▁conve	-8286
▁fatal	-8287
▁merit	-8288
▁ranks	-8289
▁satir	-8290
atingly	-8291
▁Romero	-8292
▁Thanks	-8293
▁arrive	-8294
▁demons	-8295
▁engine	-8296
▁intent	-8297
▁sloppy	-8298
▁unsett	-8299
▁demands	-8300
▁existed	-8301
▁inhabit	-8302
▁picking	-8303
▁poverty	-8304
▁reached	-8305
▁studios	-8306
▁Mitchell	-8307
▁definite	-8308
▁displays	-8309
▁occurred	-8310
▁precious	-8311
ortunately	-8312
▁resembles	-8313
▁returning	-8314
▁restaurant	-8315
▁commercials	-8316
▁differences	-8317
▁Nevertheless	-8318
Pe	-8319
Se	-8320
pin	-8321
▁Oz	-8322
▁Vo	-8323
ione	-8324
▁/>'	-8325
▁Kat	-8326
▁Tur	-8327
▁dre	-8328
eller	-8329
oviet	-8330
stars	-8331
▁Berg	-8332
▁Four	-8333
▁beer	-8334
▁lake	-8335
▁rive	-8336
Donald	-8337
▁1950'	-8338
▁illeg	-8339
▁noise	-8340
▁swear	-8341
▁Beatty	-8342
▁Gothic	-8343
▁Pretty	-8344
▁Return	-8345
▁Season	-8346
▁antics	-8347
▁burned	-8348
▁enjoys	-8349
▁idiots	-8350
▁inform	-8351
SPOILERS	-8352
▁chances	-8353
▁website	-8354
▁affected	-8355
▁electric	-8356
▁improved	-8357
▁providing	-8358
▁psychotic	-8359
▁conspiracy	-8360
▁repeatedly	-8361
▁involvement	-8362
▁choreography	-8363
▁ridiculously	-8364
Dan	-8365
abs	-8366
idy	-8367
▁2,	-8368
Most	-8369
Star	-8370
cend	-8371
enes	-8372
lers	-8373
lest	-8374
uite	-8375
▁Ing	-8376
▁cul	-8377
▁gif	-8378
icism	-8379
▁Bush	-8380
▁Duke	-8381
▁Mort	-8382
▁Shah	-8383
▁foul	-8384
▁nerv	-8385
▁size	-8386
▁wack	-8387
makers	-8388
verted	-8389
▁Heart	-8390
▁Ultim	-8391
▁blast	-8392
▁juven	-8393
▁oddly	-8394
▁sport	-8395
▁threw	-8396
▁trade	-8397
▁Altman	-8398
▁Morris	-8399
▁Turner	-8400
▁humili	-8401
▁observ	-8402
▁uneven	-8403
▁Indians	-8404
▁Mystery	-8405
▁Timothy	-8406
▁absence	-8407
▁dentist	-8408
▁jumping	-8409
▁receive	-8410
▁strikes	-8411
▁unwatch	-8412
▁Griffith	-8413
▁National	-8414
▁Princess	-8415
▁metaphor	-8416
▁scripted	-8417
▁tortured	-8418
▁movements	-8419
▁recognized	-8420
▁proceedings	-8421
▁threatening	-8422
";	-8423
8,	-8424
CE	-8425
SS	-8426
ni	-8427
agg	-8428
▁3.	-8429
▁Pu	-8430
▁Att	-8431
▁Gil	-8432
▁Ian	-8433
▁Saw	-8434
▁gut	-8435
▁pin	-8436
cover	-8437
ecess	-8438
lands	-8439
opsis	-8440
▁Cher	-8441
▁Joey	-8442
itudes	-8443
▁Blake	-8444
▁Danes	-8445
▁Jesse	-8446
▁River	-8447
▁Spike	-8448
▁argue	-8449
▁fancy	-8450
▁gotta	-8451
▁maker	-8452
▁nause	-8453
related	-8454
▁insert	-8455
▁misses	-8456
▁poison	-8457
▁settle	-8458
▁Century	-8459
▁Kennedy	-8460
▁dynamic	-8461
▁exposed	-8462
▁respond	-8463
▁sadness	-8464
▁screams	-8465
▁Hamilton	-8466
▁extended	-8467
▁imagined	-8468
▁ruthless	-8469
▁sadistic	-8470
▁symbolism	-8471
▁afterwards	-8472
▁concerning	-8473
▁population	-8474
▁astonishing	-8475
▁investigate	-8476
la	-8477
ti	-8478
▁45	-8479
...)	-8480
burn	-8481
foot	-8482
obic	-8483
ruci	-8484
▁Jer	-8485
▁Row	-8486
▁asp	-8487
eping	-8488
rocod	-8489
▁Corb	-8490
▁Peck	-8491
▁root	-8492
imated	-8493
▁cliff	-8494
▁piano	-8495
▁sales	-8496
▁trend	-8497
Richard	-8498
ketball	-8499
▁Highly	-8500
▁Kapoor	-8501
▁Norman	-8502
▁Summer	-8503
▁albeit	-8504
▁unfair	-8505
ographed	-8506
▁Mildred	-8507
▁devoted	-8508
▁engaged	-8509
▁kitchen	-8510
▁befriend	-8511
▁birthday	-8512
▁function	-8513
▁westerns	-8514
▁gradually	-8515
▁typically	-8516
▁highlights	-8517
▁overwhelming	-8518
ho	-8519
OME	-8520
Sec	-8521
See	-8522
Tom	-8523
eps	-8524
fle	-8525
bing	-8526
ffee	-8527
ipes	-8528
oral	-8529
▁Doc	-8530
▁Kay	-8531
▁Pur	-8532
▁ack	-8533
▁nep	-8534
Still	-8535
aware	-8536
emark	-8537
fight	-8538
uloid	-8539
▁Hank	-8540
▁Lily	-8541
▁load	-8542
minded	-8543
▁Palma	-8544
▁Revol	-8545
▁blows	-8546
▁staff	-8547
▁acknow	-8548
▁combat	-8549
▁cringe	-8550
▁defeat	-8551
▁devast	-8552
▁errors	-8553
▁genres	-8554
▁liking	-8555
▁maniac	-8556
▁worlds	-8557
▁Modesty	-8558
▁acclaim	-8559
▁drunken	-8560
▁neglect	-8561
▁popcorn	-8562
▁imperson	-8563
▁intrigue	-8564
▁machines	-8565
redictable	-8566
▁Excellent	-8567
▁newspaper	-8568
▁overrated	-8569
▁futuristic	-8570
▁blockbuster	-8571
▁comfortable	-8572
▁meaningless	-8573
5)	-8574
7,	-8575
OST	-8576
lik	-8577
▁21	-8578
▁Mun	-8579
▁Pam	-8580
▁bog	-8581
▁psy	-8582
agine	-8583
mares	-8584
obody	-8585
uated	-8586
▁Bell	-8587
▁Cold	-8588
▁Dave	-8589
▁LOVE	-8590
▁Sing	-8591
▁aunt	-8592
▁ward	-8593
series	-8594
▁Karen	-8595
▁Rings	-8596
▁Years	-8597
▁label	-8598
▁notes	-8599
▁pitch	-8600
▁Castle	-8601
▁Series	-8602
▁headed	-8603
▁mesmer	-8604
▁nearby	-8605
▁pseudo	-8606
▁styles	-8607
▁titled	-8608
oubtedly	-8609
thriller	-8610
▁Ireland	-8611
▁escaped	-8612
▁exploit	-8613
▁horrors	-8614
▁notably	-8615
▁detailed	-8616
▁narrator	-8617
▁offering	-8618
▁Nicholson	-8619
▁abilities	-8620
▁innovative	-8621
▁ingredients	-8622
▁resemblance	-8623
▁conversations	-8624
ERS	-8625
ONG	-8626
aks	-8627
aux	-8628
gal	-8629
▁AW	-8630
▁Gw	-8631
imer	-8632
love	-8633
oder	-8634
umsy	-8635
▁ech	-8636
▁web	-8637
plane	-8638
stage	-8639
uable	-8640
▁(196	-8641
▁1940	-8642
▁Down	-8643
▁Garb	-8644
▁Roth	-8645
▁bott	-8646
▁clic	-8647
▁sill	-8648
▁tame	-8649
icient	-8650
itches	-8651
▁Fulci	-8652
▁Miles	-8653
▁Techn	-8654
▁Video	-8655
▁Woods	-8656
▁aging	-8657
▁bears	-8658
▁beats	-8659
▁glory	-8660
▁rural	-8661
▁tires	-8662
jointed	-8663
▁Dragon	-8664
▁Ginger	-8665
▁Juliet	-8666
▁bullet	-8667
▁daring	-8668
▁fortun	-8669
▁groups	-8670
▁harder	-8671
▁orders	-8672
▁relies	-8673
▁scheme	-8674
▁stress	-8675
▁Matthew	-8676
▁Whether	-8677
▁cameras	-8678
▁digital	-8679
▁removed	-8680
▁staying	-8681
▁Margaret	-8682
▁coherent	-8683
▁misunder	-8684
▁Manhattan	-8685
▁disturbed	-8686
▁explosion	-8687
▁murderous	-8688
▁producing	-8689
▁succeeded	-8690
▁explosions	-8691
▁scientific	-8692
▁distracting	-8693
▁possibility	-8694
▁unwatchable	-8695
▁unbelievably	-8696
6.	-8697
Ge	-8698
ACK	-8699
ARD	-8700
Act	-8701
ahl	-8702
aph	-8703
gate	-8704
ieve	-8705
▁Han	-8706
▁Kar	-8707
▁Med	-8708
▁bes	-8709
▁cup	-8710
▁gro	-8711
▁lit	-8712
angel	-8713
water	-8714
▁Fore	-8715
▁Shir	-8716
▁dear	-8717
▁odds	-8718
cience	-8719
ellers	-8720
estyle	-8721
▁Fonda	-8722
▁Jamie	-8723
ocative	-8724
plicity	-8725
▁Akshay	-8726
▁Soviet	-8727
▁builds	-8728
▁handed	-8729
▁immigr	-8730
▁passes	-8731
********	-8732
▁Stiller	-8733
▁careers	-8734
▁catches	-8735
▁dancers	-8736
▁excruci	-8737
▁wannabe	-8738
▁clothing	-8739
▁journalist	-8740
got	-8741
ido	-8742
rad	-8743
rim	-8744
idal	-8745
ourt	-8746
▁ego	-8747
emies	-8748
maybe	-8749
never	-8750
udden	-8751
▁Line	-8752
▁Todd	-8753
▁fart	-8754
▁plat	-8755
▁sadd	-8756
▁shel	-8757
ixture	-8758
school	-8759
▁Craig	-8760
▁Greek	-8761
▁slave	-8762
▁smoke	-8763
▁souls	-8764
▁apolog	-8765
▁banned	-8766
▁glamor	-8767
▁hunter	-8768
▁notion	-8769
▁Florida	-8770
▁drawing	-8771
▁kidding	-8772
▁measure	-8773
▁portion	-8774
▁scratch	-8775
▁selling	-8776
▁Lawrence	-8777
▁adequate	-8778
▁backdrop	-8779
▁juvenile	-8780
▁subjects	-8781
▁predecess	-8782
▁implausible	-8783
▁conventional	-8784
▁deliberately	-8785
6,	-8786
Am	-8787
La	-8788
rah	-8789
say	-8790
ses	-8791
zen	-8792
▁Py	-8793
aman	-8794
aser	-8795
ayed	-8796
cean	-8797
gren	-8798
gypt	-8799
itle	-8800
odge	-8801
▁Ele	-8802
▁Try	-8803
▁anx	-8804
▁bin	-8805
Other	-8806
oning	-8807
zilla	-8808
▁Fool	-8809
▁Live	-8810
▁Pick	-8811
▁Scot	-8812
▁grab	-8813
▁impe	-8814
atched	-8815
itched	-8816
ombies	-8817
ularly	-8818
▁Apart	-8819
▁Glenn	-8820
▁amuse	-8821
▁doors	-8822
▁inapp	-8823
▁indul	-8824
▁motor	-8825
▁slick	-8826
▁Hamlet	-8827
▁Voight	-8828
▁adoles	-8829
▁coffee	-8830
▁corpse	-8831
▁dozens	-8832
▁league	-8833
▁patter	-8834
▁tracks	-8835
▁transp	-8836
▁vulgar	-8837
umentary	-8838
▁Kenneth	-8839
▁hideous	-8840
▁liberal	-8841
▁loosely	-8842
▁primary	-8843
▁shadows	-8844
▁unfolds	-8845
conscious	-8846
▁Brooklyn	-8847
▁explored	-8848
▁offended	-8849
▁affection	-8850
▁financial	-8851
▁interrupt	-8852
▁countryside	-8853
▁consistently	-8854
4.	-8855
esc	-8856
omn	-8857
▁Ev	-8858
▁UN	-8859
"...	-8860
gger	-8861
oner	-8862
rict	-8863
▁McL	-8864
▁Mol	-8865
▁Pot	-8866
▁awe	-8867
▁cig	-8868
chest	-8869
fined	-8870
nered	-8871
yrics	-8872
▁1/10	-8873
▁3/10	-8874
▁7/10	-8875
▁Bull	-8876
▁Hung	-8877
▁Nice	-8878
▁Pegg	-8879
▁bone	-8880
▁ease	-8881
▁sand	-8882
▁stro	-8883
▁trio	-8884
▁Brady	-8885
▁Homer	-8886
▁Nazis	-8887
▁Stars	-8888
▁coach	-8889
▁hates	-8890
▁steam	-8891
▁trees	-8892
ameless	-8893
warming	-8894
▁Warren	-8895
▁clumsy	-8896
▁devoid	-8897
▁golden	-8898
▁silver	-8899
incingly	-8900
▁NOTHING	-8901
▁avoided	-8902
▁benefit	-8903
▁blatant	-8904
▁causing	-8905
▁mixture	-8906
▁reaches	-8907
▁travels	-8908
▁composed	-8909
▁sacrific	-8910
▁Godfather	-8911
▁decisions	-8912
▁describes	-8913
▁dialogues	-8914
▁lifestyle	-8915
▁mountains	-8916
▁performer	-8917
▁satisfied	-8918
▁trademark	-8919
▁philosophy	-8920
▁thoughtful	-8921
▁unsettling	-8922
▁characteristic	-8923
bed	-8924
ees	-8925
hil	-8926
oir	-8927
▁2)	-8928
▁CD	-8929
crow	-8930
otte	-8931
ours	-8932
▁Nov	-8933
▁Pie	-8934
▁Sop	-8935
▁mic	-8936
▁reh	-8937
acies	-8938
adine	-8939
anson	-8940
itual	-8941
▁Hack	-8942
▁Iron	-8943
▁Soph	-8944
▁pays	-8945
▁sarc	-8946
▁tall	-8947
▁urge	-8948
▁Field	-8949
▁Marsh	-8950
▁Price	-8951
▁Terry	-8952
▁Worst	-8953
▁audio	-8954
▁bless	-8955
▁filth	-8956
▁hints	-8957
▁props	-8958
▁resur	-8959
▁shine	-8960
▁shirt	-8961
▁Berlin	-8962
▁Legend	-8963
▁Lemmon	-8964
▁Unless	-8965
▁brains	-8966
▁exotic	-8967
▁hatred	-8968
▁houses	-8969
▁specif	-8970
▁staged	-8971
▁thumbs	-8972
ifferent	-8973
▁Angeles	-8974
▁buddies	-8975
▁classes	-8976
▁directs	-8977
▁dismiss	-8978
▁montage	-8979
▁smaller	-8980
▁stinker	-8981
▁cannibal	-8982
▁enormous	-8983
▁sidekick	-8984
▁synopsis	-8985
▁authority	-8986
▁celluloid	-8987
▁currently	-8988
▁fundament	-8989
▁immensely	-8990
▁disjointed	-8991
▁explaining	-8992
▁influenced	-8993
▁backgrounds	-8994
▁desperation	-8995
▁frustration	-8996
abh	-8997
obs	-8998
▁Aw	-8999
▁fo	-9000
ican	-9001
rier	-9002
▁HBO	-9003
▁Kum	-9004
▁bew	-9005
agues	-9006
amera	-9007
break	-9008
child	-9009
great	-9010
leton	-9011
oples	-9012
phant	-9013
▁Eyes	-9014
▁Hurt	-9015
▁Make	-9016
▁Niro	-9017
▁Stra	-9018
▁outs	-9019
▁sett	-9020
▁whim	-9021
ceived	-9022
istory	-9023
ulsive	-9024
vation	-9025
▁EVERY	-9026
▁Thing	-9027
▁forms	-9028
▁signs	-9029
▁Gadget	-9030
▁Walker	-9031
▁damage	-9032
▁doomed	-9033
▁finger	-9034
▁outfit	-9035
▁robots	-9036
▁suited	-9037
▁useful	-9038
▁Further	-9039
▁Hartley	-9040
▁bedroom	-9041
▁encoura	-9042
▁endings	-9043
▁nervous	-9044
▁cheating	-9045
▁inferior	-9046
▁commented	-9047
▁senseless	-9048
▁transport	-9049
▁prostitute	-9050
▁remarkably	-9051
▁unintentional	-9052
')	-9053
6)	-9054
fu	-9055
cia	-9056
▁Ju	-9057
????	-9058
ccer	-9059
issa	-9060
llie	-9061
uart	-9062
▁BUT	-9063
▁Low	-9064
▁fed	-9065
▁tad	-9066
!!!!!	-9067
ayson	-9068
forms	-9069
funny	-9070
itled	-9071
ovich	-9072
▁Edie	-9073
▁Sold	-9074
▁Song	-9075
▁alas	-9076
▁bang	-9077
▁west	-9078
▁wont	-9079
izable	-9080
▁Donna	-9081
▁Garbo	-9082
▁Hills	-9083
▁Shell	-9084
▁drops	-9085
▁mouse	-9086
▁optim	-9087
▁shelf	-9088
▁thugs	-9089
▁winds	-9090
ossibly	-9091
▁Maggie	-9092
▁Paulie	-9093
▁Streep	-9094
▁endure	-9095
▁lasted	-9096
▁lyrics	-9097
▁models	-9098
▁prejud	-9099
▁rebell	-9100
function	-9101
▁enemies	-9102
▁guessed	-9103
▁highest	-9104
▁instant	-9105
▁matches	-9106
▁motives	-9107
▁topless	-9108
▁weakest	-9109
▁focusing	-9110
▁sentence	-9111
▁Inspector	-9112
▁dedicated	-9113
▁illogical	-9114
▁miserable	-9115
▁horrifying	-9116
▁introduces	-9117
▁simplistic	-9118
▁nevertheless	-9119
Em	-9120
Or	-9121
Com	-9122
izz	-9123
ukh	-9124
zer	-9125
▁MY	-9126
pril	-9127
shot	-9128
then	-9129
▁Ext	-9130
▁Hey	-9131
▁Pen	-9132
▁Set	-9133
▁Sha	-9134
▁wis	-9135
Black	-9136
ookie	-9137
white	-9138
▁(195	-9139
▁Cuba	-9140
▁Hick	-9141
▁Hunt	-9142
▁Iraq	-9143
▁Ross	-9144
▁adul	-9145
▁muse	-9146
▁tail	-9147
ilarly	-9148
▁Emily	-9149
▁persu	-9150
▁pride	-9151
▁recru	-9152
▁stabb	-9153
olutely	-9154
▁Except	-9155
▁Murder	-9156
▁candid	-9157
▁chased	-9158
▁nephew	-9159
aneously	-9160
▁Jeffrey	-9161
▁Madonna	-9162
▁Olivier	-9163
▁Wallace	-9164
▁burning	-9165
▁captain	-9166
▁generic	-9167
▁justify	-9168
▁stellar	-9169
▁whereas	-9170
▁Polanski	-9171
▁adorable	-9172
▁recorded	-9173
▁troubles	-9174
▁unsatisf	-9175
▁displayed	-9176
▁primarily	-9177
▁artificial	-9178
▁disappeared	-9179
▁cinematographer	-9180
Te	-9181
Its	-9182
pel	-9183
rip	-9184
▁RE	-9185
▁je	-9186
ATCH	-9187
aith	-9188
assy	-9189
esis	-9190
mill	-9191
ptly	-9192
unts	-9193
ysis	-9194
▁dys	-9195
▁pir	-9196
▁tie	-9197
about	-9198
chers	-9199
ental	-9200
oding	-9201
ooges	-9202
orney	-9203
osing	-9204
peror	-9205
▁Arab	-9206
▁Hugh	-9207
▁Macy	-9208
▁Marc	-9209
▁elim	-9210
▁flop	-9211
▁gall	-9212
icking	-9213
strong	-9214
wright	-9215
▁Annie	-9216
▁Chase	-9217
▁Latin	-9218
▁Right	-9219
▁Stall	-9220
▁Times	-9221
▁curse	-9222
▁disli	-9223
▁fluff	-9224
▁inane	-9225
▁monot	-9226
▁Gandhi	-9227
▁dating	-9228
▁instit	-9229
▁solely	-9230
▁suspic	-9231
▁temper	-9232
▁Alexand	-9233
▁Dracula	-9234
▁Swedish	-9235
▁Thunder	-9236
▁contrad	-9237
▁funeral	-9238
▁secrets	-9239
▁smoking	-9240
▁hopeless	-9241
▁practice	-9242
▁survival	-9243
▁companion	-9244
▁contained	-9245
▁formulaic	-9246
▁developing	-9247
▁thankfully	-9248
▁interaction	-9249
▁similarities	-9250
▁possibilities	-9251
HA	-9252
ATE	-9253
▁4.	-9254
▁Kr	-9255
▁WI	-9256
aval	-9257
pled	-9258
ruly	-9259
▁Abr	-9260
▁McD	-9261
angle	-9262
oured	-9263
▁Code	-9264
▁Sept	-9265
▁Supp	-9266
▁acid	-9267
▁blew	-9268
▁ears	-9269
▁heat	-9270
▁mudd	-9271
▁util	-9272
▁Adams	-9273
▁Holly	-9274
▁Lumet	-9275
▁flies	-9276
▁forty	-9277
▁misle	-9278
▁rooms	-9279
▁shoes	-9280
ivalent	-9281
perfect	-9282
▁Harvey	-9283
▁agrees	-9284
▁fantas	-9285
▁heroic	-9286
▁hypnot	-9287
▁photos	-9288
▁severe	-9289
▁trashy	-9290
ommended	-9291
▁Titanic	-9292
▁claimed	-9293
▁divorce	-9294
▁illness	-9295
▁emphasis	-9296
▁ignorant	-9297
▁instinct	-9298
▁officers	-9299
▁subtlety	-9300
▁depressed	-9301
▁Eventually	-9302
▁altogether	-9303
▁consistent	-9304
▁transition	-9305
▁Considering	-9306
▁considerable	-9307
▁transformation	-9308
,<	-9309
4)	-9310
40	-9311
Dr	-9312
RY	-9313
UM	-9314
ESS	-9315
eta	-9316
olk	-9317
put	-9318
run	-9319
ryn	-9320
was	-9321
eyed	-9322
irts	-9323
numb	-9324
wind	-9325
▁Miy	-9326
▁ONE	-9327
▁Uwe	-9328
▁WAS	-9329
▁aid	-9330
▁pad	-9331
▁wet	-9332
James	-9333
gling	-9334
human	-9335
▁Cham	-9336
▁Doll	-9337
▁Five	-9338
▁Khan	-9339
▁Luck	-9340
▁Lund	-9341
▁Simp	-9342
▁anth	-9343
▁calm	-9344
▁cats	-9345
▁icon	-9346
▁publ	-9347
movies	-9348
▁April	-9349
▁Tommy	-9350
▁cards	-9351
▁hence	-9352
▁hurts	-9353
▁tunes	-9354
retched	-9355
▁Grinch	-9356
▁faults	-9357
▁implic	-9358
▁Bergman	-9359
▁Granted	-9360
▁Vampire	-9361
▁Winters	-9362
▁applaud	-9363
▁contrib	-9364
▁honesty	-9365
▁painted	-9366
▁surfing	-9367
astically	-9368
▁arrogant	-9369
▁goodness	-9370
▁isolated	-9371
ropriately	-9372
▁dinosaurs	-9373
▁inventive	-9374
▁corruption	-9375
▁psychopath	-9376
▁stereotype	-9377
▁politically	-9378
▁International	-9379
▁embarrassment	-9380
8)	-9381
cha	-9382
lam	-9383
▁Ly	-9384
born	-9385
stin	-9386
▁arc	-9387
▁fog	-9388
▁rum	-9389
▁ups	-9390
▁von	-9391
acles	-9392
based	-9393
check	-9394
▁Fish	-9395
▁Gund	-9396
▁Palt	-9397
▁jazz	-9398
▁mund	-9399
▁sits	-9400
▁thru	-9401
▁user	-9402
▁wore	-9403
▁Diana	-9404
▁gloss	-9405
▁loads	-9406
▁nurse	-9407
▁overt	-9408
▁scope	-9409
▁thief	-9410
ionship	-9411
▁Dalton	-9412
▁Julian	-9413
▁faster	-9414
▁monkey	-9415
▁princi	-9416
▁treats	-9417
▁waited	-9418
▁wished	-9419
▁Dickens	-9420
▁Neither	-9421
▁Simpson	-9422
▁planned	-9423
▁silence	-9424
▁Remember	-9425
▁contempl	-9426
▁downhill	-9427
▁glorious	-9428
▁purchase	-9429
▁tiresome	-9430
ploitation	-9431
▁conscious	-9432
▁discovery	-9433
▁delivering	-9434
▁nomination	-9435
▁philosophical	-9436
9)	-9437
Go	-9438
ori	-9439
▁3-	-9440
▁RO	-9441
bbed	-9442
mons	-9443
orus	-9444
prov	-9445
ptic	-9446
▁sab	-9447
Great	-9448
Night	-9449
iably	-9450
▁Days	-9451
▁Dill	-9452
▁Judy	-9453
▁Pars	-9454
▁REAL	-9455
▁Ward	-9456
▁cens	-9457
▁rein	-9458
▁stir	-9459
▁trav	-9460
ivable	-9461
▁Rambo	-9462
▁Timon	-9463
▁chess	-9464
▁lackl	-9465
▁newly	-9466
▁reads	-9467
ensions	-9468
mission	-9469
▁agents	-9470
▁assemb	-9471
▁dances	-9472
▁halluc	-9473
▁taught	-9474
▁Christy	-9475
▁Paltrow	-9476
▁Sellers	-9477
▁Stevens	-9478
▁Strange	-9479
▁arrived	-9480
▁closest	-9481
▁commend	-9482
▁compens	-9483
▁relation	-9484
▁riveting	-9485
▁suitable	-9486
▁Certainly	-9487
▁corporate	-9488
▁guarantee	-9489
▁nostalgic	-9490
▁possessed	-9491
▁traveling	-9492
▁passionate	-9493
▁motivations	-9494
▁represented	-9495
▁convincingly	-9496
"!	-9497
7)	-9498
Ke	-9499
Hey	-9500
gle	-9501
oma	-9502
▁FR	-9503
▁ax	-9504
▁ow	-9505
hind	-9506
vity	-9507
▁Aff	-9508
▁Mey	-9509
▁SNL	-9510
▁dud	-9511
▁pub	-9512
▁wig	-9513
alley	-9514
annah	-9515
anoia	-9516
aping	-9517
atics	-9518
awful	-9519
every	-9520
▁Call	-9521
▁Dawn	-9522
▁Thus	-9523
▁dazz	-9524
▁glor	-9525
▁Civil	-9526
▁Dixon	-9527
▁Dutch	-9528
▁Egypt	-9529
▁Ellen	-9530
▁GREAT	-9531
▁Linda	-9532
▁Ollie	-9533
▁awake	-9534
▁buffs	-9535
▁instr	-9536
▁irres	-9537
▁recon	-9538
▁stole	-9539
respect	-9540
▁Carrie	-9541
▁Hopper	-9542
▁behave	-9543
▁casual	-9544
▁divers	-9545
▁engage	-9546
▁fooled	-9547
inations	-9548
rocodile	-9549
▁Montana	-9550
▁abysmal	-9551
▁beliefs	-9552
▁despair	-9553
▁shortly	-9554
▁surpass	-9555
▁unhappy	-9556
▁Campbell	-9557
▁contrary	-9558
▁promised	-9559
▁Carradine	-9560
▁conflicts	-9561
▁establish	-9562
▁provoking	-9563
▁terrorist	-9564
▁Fortunately	-9565
Che	-9566
Mur	-9567
▁Kn	-9568
▁OR	-9569
▁Op	-9570
ello	-9571
fast	-9572
▁Bow	-9573
▁jaw	-9574
again	-9575
antom	-9576
apers	-9577
▁Antw	-9578
▁Band	-9579
▁Fant	-9580
▁Fear	-9581
▁Lena	-9582
▁Read	-9583
▁STAR	-9584
▁Town	-9585
▁buck	-9586
▁ench	-9587
▁mall	-9588
▁purs	-9589
▁toys	-9590
▁vibr	-9591
▁Block	-9592
▁Myers	-9593
▁alter	-9594
▁exped	-9595
▁spare	-9596
attered	-9597
▁Austen	-9598
▁Cowboy	-9599
▁Mickey	-9600
▁closed	-9601
▁humble	-9602
▁inject	-9603
▁jumped	-9604
▁kicked	-9605
▁scores	-9606
▁winter	-9607
austroph	-9608
▁Shirley	-9609
▁designs	-9610
▁desired	-9611
▁diamond	-9612
▁Richards	-9613
▁Scottish	-9614
▁eighties	-9615
▁hardcore	-9616
▁maintain	-9617
▁splatter	-9618
▁swimming	-9619
▁valuable	-9620
▁alcoholic	-9621
▁executive	-9622
▁gangsters	-9623
▁seventies	-9624
▁yesterday	-9625
▁Richardson	-9626
▁Throughout	-9627
▁presumably	-9628
▁progresses	-9629
▁translation	-9630
▁understated	-9631
▁undoubtedly	-9632
▁understandable	-9633
Av	-9634
ORE	-9635
han	-9636
▁PR	-9637
Look	-9638
iley	-9639
iper	-9640
olit	-9641
otta	-9642
▁Eye	-9643
▁Fro	-9644
▁LOT	-9645
▁Leo	-9646
▁Myr	-9647
▁Rad	-9648
▁Sex	-9649
▁Viv	-9650
▁mal	-9651
▁sen	-9652
▁sup	-9653
▁upl	-9654
▁wow	-9655
THING	-9656
hears	-9657
isons	-9658
onica	-9659
ovsky	-9660
unior	-9661
▁(193	-9662
▁Amaz	-9663
▁Elli	-9664
▁Talk	-9665
▁Year	-9666
▁blur	-9667
▁duty	-9668
▁lord	-9669
▁mile	-9670
▁prol	-9671
▁tang	-9672
everal	-9673
▁Alien	-9674
▁Blond	-9675
▁Jenny	-9676
▁Mario	-9677
▁Orson	-9678
▁Whoop	-9679
▁chaos	-9680
▁exter	-9681
▁hyper	-9682
▁porno	-9683
▁sappy	-9684
▁shake	-9685
▁spoke	-9686
Perhaps	-9687
ference	-9688
▁Sister	-9689
▁Spirit	-9690
▁Valent	-9691
▁advise	-9692
▁catchy	-9693
▁french	-9694
▁intric	-9695
▁irrele	-9696
▁lowest	-9697
▁plight	-9698
▁racial	-9699
▁rubber	-9700
▁soccer	-9701
▁Connery	-9702
▁Germans	-9703
▁Scrooge	-9704
▁abusive	-9705
▁amounts	-9706
▁beneath	-9707
▁depicts	-9708
▁engross	-9709
▁lengthy	-9710
▁remarks	-9711
▁spirits	-9712
▁staring	-9713
▁partners	-9714
▁secretly	-9715
▁buildings	-9716
▁education	-9717
▁purchased	-9718
▁Characters	-9719
▁destroying	-9720
▁nightmares	-9721
▁simplicity	-9722
▁dimensional	-9723
▁grandfather	-9724
▁questionable	-9725
-2	-9726
Su	-9727
ca	-9728
isk	-9729
▁fi	-9730
anza	-9731
ench	-9732
ushi	-9733
▁Bud	-9734
▁Tal	-9735
▁Cann	-9736
▁Kyle	-9737
▁Lots	-9738
▁ONLY	-9739
▁Plot	-9740
▁Skip	-9741
▁alle	-9742
▁obst	-9743
▁reel	-9744
▁unst	-9745
antino	-9746
astern	-9747
▁1970'	-9748
▁Actor	-9749
▁Diane	-9750
▁Enjoy	-9751
▁Nicol	-9752
▁Vegas	-9753
▁Wendy	-9754
▁analy	-9755
▁stark	-9756
otesque	-9757
▁absent	-9758
▁custom	-9759
▁facing	-9760
▁incest	-9761
▁safety	-9762
▁undert	-9763
▁Farrell	-9764
▁couples	-9765
▁illegal	-9766
▁leaders	-9767
▁monolog	-9768
▁schlock	-9769
▁stilted	-9770
▁Robinson	-9771
▁brutally	-9772
▁parallel	-9773
▁survived	-9774
▁trailers	-9775
▁nostalgia	-9776
▁principal	-9777
▁rendition	-9778
▁complexity	-9779
▁helicopter	-9780
▁vulnerable	-9781
▁recognition	-9782
▁construction	-9783
▁revolutionary	-9784
bi	-9785
bu	-9786
AST	-9787
His	-9788
▁7.	-9789
High	-9790
amer	-9791
ersh	-9792
eryl	-9793
inne	-9794
iped	-9795
ouch	-9796
rows	-9797
zing	-9798
▁/>8	-9799
▁Duk	-9800
▁fro	-9801
▁sus	-9802
inity	-9803
leans	-9804
▁Cary	-9805
▁Chic	-9806
▁GOOD	-9807
▁Hood	-9808
▁Kent	-9809
▁dism	-9810
▁edit	-9811
▁entr	-9812
▁gest	-9813
▁mate	-9814
▁rage	-9815
headed	-9816
icable	-9817
ifully	-9818
itable	-9819
▁Claus	-9820
▁Close	-9821
▁Edgar	-9822
▁Force	-9823
▁bands	-9824
▁crush	-9825
▁equip	-9826
▁guide	-9827
▁hench	-9828
▁legal	-9829
▁pants	-9830
ensical	-9831
▁button	-9832
▁cliche	-9833
▁condem	-9834
▁earned	-9835
▁messed	-9836
▁quotes	-9837
▁unexpl	-9838
▁worker	-9839
▁Profess	-9840
▁letters	-9841
▁vaguely	-9842
▁wrapped	-9843
▁Honestly	-9844
▁distingu	-9845
▁helpless	-9846
▁patients	-9847
▁proceeds	-9848
▁reaching	-9849
▁viewings	-9850
▁wretched	-9851
▁attitudes	-9852
▁celebrity	-9853
▁realizing	-9854
▁relatives	-9855
▁resources	-9856
▁witnessed	-9857
▁claustroph	-9858
▁pretending	-9859
▁advertising	-9860
▁challenging	-9861
▁experiments	-9862
▁responsibility	-9863
"-	-9864
Ang	-9865
God	-9866
cop	-9867
hum	-9868
▁Rh	-9869
OULD	-9870
aham	-9871
ashi	-9872
lins	-9873
quer	-9874
rand	-9875
▁Cab	-9876
▁Joh	-9877
▁Kol	-9878
▁Ven	-9879
quest	-9880
▁2001	-9881
▁4/10	-9882
▁Craw	-9883
▁Gore	-9884
▁Sirk	-9885
▁bird	-9886
▁dish	-9887
▁indu	-9888
▁pray	-9889
▁reck	-9890
▁saga	-9891
▁sung	-9892
▁twin	-9893
Second	-9894
ervice	-9895
master	-9896
ousing	-9897
▁Drake	-9898
▁Soder	-9899
▁Spock	-9900
▁bonus	-9901
▁grate	-9902
▁Scream	-9903
▁closet	-9904
▁copies	-9905
▁detect	-9906
▁dreary	-9907
▁ensues	-9908
▁joined	-9909
▁poetic	-9910
▁ritual	-9911
▁rocket	-9912
▁widely	-9913
▁Gabriel	-9914
▁cheated	-9915
▁elegant	-9916
▁granted	-9917
▁satisfy	-9918
▁visible	-9919
▁Godzilla	-9920
▁Jonathan	-9921
▁incorpor	-9922
▁inherent	-9923
▁opinions	-9924
▁subplots	-9925
▁alongside	-9926
▁dimension	-9927
▁accomplish	-9928
▁confidence	-9929
▁fascinated	-9930
▁dysfunction	-9931
▁potentially	-9932
▁appreciation	-9933
▁specifically	-9934
AP	-9935
Bas	-9936
did	-9937
fan	-9938
▁35	-9939
!!!<	-9940
Once	-9941
alsh	-9942
avia	-9943
club	-9944
cult	-9945
felt	-9946
gers	-9947
icia	-9948
izek	-9949
sect	-9950
ubby	-9951
uinn	-9952
▁Jed	-9953
▁Rat	-9954
▁Sen	-9955
▁Syd	-9956
▁Top	-9957
▁ren	-9958
agner	-9959
azaki	-9960
bergh	-9961
force	-9962
front	-9963
inter	-9964
istan	-9965
ormal	-9966
pered	-9967
▁Biko	-9968
▁June	-9969
▁Reid	-9970
▁Wolf	-9971
▁cake	-9972
▁code	-9973
▁mish	-9974
▁plod	-9975
▁riot	-9976
Please	-9977
annels	-9978
▁*****	-9979
▁/>***	-9980
▁Aside	-9981
▁Dirty	-9982
▁McLag	-9983
▁Trans	-9984
▁clock	-9985
▁colon	-9986
▁habit	-9987
▁indic	-9988
▁seeks	-9989
▁south	-9990
▁tends	-9991
likable	-9992
▁Amanda	-9993
▁Argent	-9994
▁Bacall	-9995
▁Gerard	-9996
▁Gundam	-9997
▁Seeing	-9998
▁poetry	-9999
▁resort	-10000
▁troops	-10001
▁visits	-10002
▁Belushi	-10003
▁arrival	-10004
▁foolish	-10005
▁mundane	-10006
▁persons	-10007
▁substit	-10008
▁yelling	-10009
▁Lundgren	-10010
▁floating	-10011
▁intimate	-10012
▁showcase	-10013
▁Barrymore	-10014
▁compelled	-10015
▁mysteries	-10016
▁prisoners	-10017
▁equivalent	-10018
▁terrorists	-10019
▁constructed	-10020
▁exploration	-10021
▁manipulative	-10022
▁inappropriate	-10023
.(	-10024
-19	-10025
chi	-10026
thm	-10027
wan	-10028
▁Ur	-10029
)...	-10030
acks	-10031
ioni	-10032
orky	-10033
▁/>2	-10034
▁/>7	-10035
▁9/1	-10036
▁Bal	-10037
▁Bay	-10038
▁Hat	-10039
▁Rex	-10040
▁Vis	-10041
▁aka	-10042
▁ape	-10043
▁lun	-10044
ansas	-10045
blood	-10046
ighty	-10047
uries	-10048
▁(194	-10049
▁Bald	-10050
▁Boys	-10051
▁Clar	-10052
▁Penn	-10053
▁boun	-10054
▁cure	-10055
▁glim	-10056
amount	-10057
ilight	-10058
inding	-10059
ompson	-10060
uation	-10061
worthy	-10062
▁Damon	-10063
▁Loren	-10064
▁Worth	-10065
▁legit	-10066
▁photo	-10067
▁tooth	-10068
▁Commun	-10069
▁Nathan	-10070
▁Peters	-10071
▁Rooney	-10072
▁Willis	-10073
▁global	-10074
▁warmth	-10075
▁Chicago	-10076
▁Imagine	-10077
▁SPOILER	-10078
▁Special	-10079
▁Theater	-10080
▁centers	-10081
▁chooses	-10082
▁enlight	-10083
▁parties	-10084
▁sincere	-10085
▁trained	-10086
▁Virginia	-10087
▁channels	-10088
▁demented	-10089
▁capturing	-10090
▁plausible	-10091
▁irrelevant	-10092
▁exceptionally	-10093
Pr	-10094
Two	-10095
gia	-10096
oly	-10097
▁ce	-10098
isha	-10099
main	-10100
▁/>3	-10101
▁Dee	-10102
▁Dig	-10103
▁NYC	-10104
▁Pay	-10105
▁Sub	-10106
▁awa	-10107
▁vig	-10108
arity	-10109
maker	-10110
tends	-10111
▁Burg	-10112
▁Crow	-10113
▁Nort	-10114
▁pale	-10115
▁poem	-10116
▁pops	-10117
abrina	-10118
actors	-10119
illian	-10120
imagin	-10121
▁Girls	-10122
▁Human	-10123
▁Walsh	-10124
▁campa	-10125
▁reson	-10126
▁stale	-10127
▁unden	-10128
onymous	-10129
ructive	-10130
▁Alfred	-10131
▁Carell	-10132
▁Sandra	-10133
▁agreed	-10134
▁bottle	-10135
▁cities	-10136
▁losers	-10137
▁morbid	-10138
▁spaces	-10139
▁spring	-10140
▁square	-10141
▁stream	-10142
▁wisdom	-10143
▁writes	-10144
▁Cassidy	-10145
▁Shelley	-10146
▁Somehow	-10147
▁awfully	-10148
▁combine	-10149
▁convict	-10150
▁kicking	-10151
▁methods	-10152
▁minimum	-10153
▁robbery	-10154
▁unaware	-10155
▁Southern	-10156
▁Thompson	-10157
▁advanced	-10158
▁performs	-10159
▁travesty	-10160
▁Wonderful	-10161
▁alternate	-10162
▁classical	-10163
▁equipment	-10164
▁excessive	-10165
▁grotesque	-10166
▁slaughter	-10167
▁vengeance	-10168
▁wandering	-10169
▁witnesses	-10170
▁Christians	-10171
▁creativity	-10172
▁mechanical	-10173
▁choreographed	-10174
▁opportunities	-10175
vi	-10176
!!<	-10177
Her	-10178
dog	-10179
isy	-10180
oby	-10181
pre	-10182
tta	-10183
▁Ep	-10184
▁TR	-10185
bury	-10186
free	-10187
hell	-10188
iour	-10189
ocol	-10190
oked	-10191
orse	-10192
osey	-10193
pion	-10194
rain	-10195
ripp	-10196
umbo	-10197
▁Amy	-10198
▁Squ	-10199
▁Unt	-10200
▁map	-10201
cking	-10202
claim	-10203
faced	-10204
mpire	-10205
ugene	-10206
▁Owen	-10207
▁dirt	-10208
▁lips	-10209
▁priv	-10210
▁punk	-10211
▁ties	-10212
ixties	-10213
rosawa	-10214
stinov	-10215
usions	-10216
▁meand	-10217
borough	-10218
issance	-10219
venture	-10220
▁Rating	-10221
▁dragon	-10222
▁ethnic	-10223
▁lately	-10224
▁misery	-10225
▁Monster	-10226
▁Scarlet	-10227
▁bargain	-10228
▁crucial	-10229
▁empathy	-10230
▁mankind	-10231
▁protest	-10232
▁wishing	-10233
▁Atlantis	-10234
▁bumbling	-10235
▁disgrace	-10236
▁frequent	-10237
▁mentions	-10238
▁paranoia	-10239
▁polished	-10240
▁purposes	-10241
▁randomly	-10242
▁restored	-10243
▁climactic	-10244
▁comparing	-10245
▁conceived	-10246
▁introduce	-10247
▁masterful	-10248
▁survivors	-10249
▁literature	-10250
▁popularity	-10251
▁suspicious	-10252
▁incompetent	-10253
▁civilization	-10254
▁conservative	-10255
▁intentionally	-10256
!'	-10257
?'	-10258
IP	-10259
..<	-10260
THE	-10261
bet	-10262
col	-10263
lem	-10264
sur	-10265
uke	-10266
eder	-10267
ften	-10268
ldom	-10269
okey	-10270
▁Dow	-10271
▁Von	-10272
▁fee	-10273
▁voy	-10274
Frank	-10275
anges	-10276
arrel	-10277
haust	-10278
onson	-10279
ravel	-10280
reens	-10281
sycho	-10282
ugust	-10283
▁9/10	-10284
▁Face	-10285
▁Fell	-10286
▁deaf	-10287
▁loos	-10288
▁lush	-10289
▁rude	-10290
▁rush	-10291
Though	-10292
arents	-10293
icolor	-10294
thello	-10295
▁Based	-10296
▁Given	-10297
▁arist	-10298
▁armed	-10299
▁recyc	-10300
▁ruins	-10301
▁snake	-10302
▁sneak	-10303
▁tribe	-10304
▁valid	-10305
William	-10306
▁Brazil	-10307
▁Cruise	-10308
▁doubts	-10309
▁exquis	-10310
▁gender	-10311
▁gifted	-10312
▁online	-10313
▁orphan	-10314
▁rotten	-10315
▁summar	-10316
attering	-10317
izations	-10318
ulations	-10319
▁Grayson	-10320
▁Simmons	-10321
▁Usually	-10322
▁blowing	-10323
▁gimmick	-10324
▁pushing	-10325
▁smiling	-10326
prisingly	-10327
▁Kurosawa	-10328
▁Miyazaki	-10329
▁Scotland	-10330
▁assigned	-10331
▁receives	-10332
▁Charlotte	-10333
▁expressed	-10334
▁household	-10335
▁integrity	-10336
▁interests	-10337
▁neighbors	-10338
▁activities	-10339
▁expedition	-10340
▁underlying	-10341
▁unoriginal	-10342
▁businessman	-10343
▁hilariously	-10344
-)	-10345
AW	-10346
IV	-10347
IDS	-10348
Ser	-10349
ali	-10350
fly	-10351
nel	-10352
▁Kl	-10353
▁Cut	-10354
▁Doo	-10355
▁Eri	-10356
▁WHY	-10357
▁san	-10358
bable	-10359
bbing	-10360
overn	-10361
ption	-10362
▁Bron	-10363
▁Jord	-10364
▁Save	-10365
▁fren	-10366
▁quit	-10367
▁unle	-10368
▁warr	-10369
▁Damme	-10370
▁Final	-10371
▁Mount	-10372
▁Women	-10373
▁eaten	-10374
▁hears	-10375
▁jewel	-10376
▁nomin	-10377
▁phony	-10378
SPOILER	-10379
▁Darren	-10380
▁Domino	-10381
▁Graham	-10382
▁Temple	-10383
▁Watson	-10384
▁behold	-10385
▁guitar	-10386
▁limits	-10387
▁menace	-10388
▁merits	-10389
▁simult	-10390
▁stinks	-10391
▁Several	-10392
▁comprom	-10393
▁creator	-10394
▁package	-10395
Hollywood	-10396
▁Stallone	-10397
▁analysis	-10398
▁attorney	-10399
▁cleverly	-10400
▁property	-10401
▁unimagin	-10402
▁Beautiful	-10403
▁correctly	-10404
▁marketing	-10405
▁recording	-10406
▁surviving	-10407
▁Soderbergh	-10408
▁University	-10409
▁mentioning	-10410
DS	-10411
po	-10412
sa	-10413
wl	-10414
ARN	-10415
MAN	-10416
ati	-10417
guy	-10418
▁BA	-10419
▁Ok	-10420
Jane	-10421
arts	-10422
plex	-10423
rise	-10424
rock	-10425
▁Eli	-10426
▁McK	-10427
▁Meg	-10428
▁SEE	-10429
acity	-10430
creen	-10431
indul	-10432
oiled	-10433
vised	-10434
▁Bela	-10435
▁Case	-10436
▁Earl	-10437
▁Hero	-10438
▁Hyde	-10439
▁Less	-10440
▁Math	-10441
▁Mind	-10442
▁Rukh	-10443
▁baff	-10444
▁bell	-10445
▁chew	-10446
▁nerd	-10447
▁romp	-10448
▁roof	-10449
▁sess	-10450
▁sust	-10451
ampoon	-10452
erness	-10453
reston	-10454
▁Carla	-10455
▁Court	-10456
▁Dolph	-10457
▁Novak	-10458
▁Spain	-10459
▁album	-10460
▁birds	-10461
▁dreck	-10462
▁moody	-10463
▁obliv	-10464
▁wacky	-10465
iceless	-10466
▁Alison	-10467
▁Wagner	-10468
▁demean	-10469
▁expand	-10470
▁lively	-10471
▁render	-10472
▁rolled	-10473
▁versus	-10474
▁Fiction	-10475
▁Frankie	-10476
▁Orleans	-10477
▁Phillip	-10478
▁Sheriff	-10479
▁Ustinov	-10480
▁alleged	-10481
▁assumed	-10482
▁careful	-10483
▁defense	-10484
▁fighter	-10485
▁species	-10486
▁suspend	-10487
▁unravel	-10488
developed	-10489
▁McLaglen	-10490
▁Needless	-10491
▁assassin	-10492
▁catching	-10493
▁domestic	-10494
▁princess	-10495
▁resemble	-10496
▁teaching	-10497
▁waitress	-10498
▁According	-10499
▁September	-10500
▁ambiguous	-10501
▁brutality	-10502
▁depicting	-10503
▁greatness	-10504
▁shameless	-10505
▁stretched	-10506
▁definition	-10507
▁directions	-10508
▁exposition	-10509
▁industrial	-10510
▁punishment	-10511
▁accompanied	-10512
▁adaptations	-10513
▁distribution	-10514
▁masterpieces	-10515
▁heartbreaking	-10516
!,	-10517
INE	-10518
Spe	-10519
met	-10520
▁BS	-10521
▁Ca	-10522
▁Mo	-10523
▁Ot	-10524
angh	-10525
arse	-10526
emic	-10527
hile	-10528
iker	-10529
leck	-10530
llen	-10531
offs	-10532
will	-10533
xton	-10534
▁Fan	-10535
▁Lex	-10536
▁Nin	-10537
▁Poe	-10538
▁WAY	-10539
▁fur	-10540
▁max	-10541
▁ram	-10542
burne	-10543
iners	-10544
matic	-10545
ucker	-10546
▁Cart	-10547
▁bugs	-10548
▁fabr	-10549
▁flag	-10550
▁furn	-10551
▁shed	-10552
▁surg	-10553
▁wing	-10554
ooding	-10555
ourney	-10556
▁Molly	-10557
▁Short	-10558
▁grabs	-10559
▁grass	-10560
▁intim	-10561
▁sched	-10562
▁slice	-10563
▁Ashley	-10564
▁Spring	-10565
▁Willie	-10566
▁assign	-10567
▁cattle	-10568
▁exclus	-10569
▁signed	-10570
▁therap	-10571
▁wholly	-10572
--------	-10573
▁Cassave	-10574
▁History	-10575
▁archite	-10576
▁stunned	-10577
▁tonight	-10578
▁warrior	-10579
▁Crawford	-10580
▁deceased	-10581
▁disliked	-10582
▁passable	-10583
▁patience	-10584
▁pressure	-10585
▁promises	-10586
▁showdown	-10587
▁Antonioni	-10588
▁companies	-10589
▁immediate	-10590
▁laughably	-10591
▁supported	-10592
▁tasteless	-10593
▁wrestling	-10594
▁overacting	-10595
▁reflection	-10596
▁generations	-10597
▁nonsensical	-10598
▁confrontation	-10599
▁straightforward	-10600
Ed	-10601
yo	-10602
(..	-10603
OUS	-10604
Too	-10605
big	-10606
mel	-10607
▁Cy	-10608
▁Mu	-10609
Very	-10610
acts	-10611
both	-10612
brow	-10613
ecil	-10614
ells	-10615
lymp	-10616
osis	-10617
rehe	-10618
rien	-10619
▁Cou	-10620
▁Put	-10621
▁Wel	-10622
▁dod	-10623
▁jer	-10624
▁lav	-10625
▁woe	-10626
artha	-10627
enger	-10628
neath	-10629
▁/>10	-10630
▁3000	-10631
▁Kids	-10632
▁List	-10633
▁Tone	-10634
▁amid	-10635
▁clip	-10636
▁doct	-10637
▁unit	-10638
acious	-10639
ueless	-10640
▁Betty	-10641
▁Marty	-10642
▁Sweet	-10643
▁Vance	-10644
▁cripp	-10645
▁wives	-10646
▁Angela	-10647
▁Louise	-10648
▁Raines	-10649
▁amused	-10650
▁demise	-10651
▁greedy	-10652
▁museum	-10653
rilliant	-10654
▁Abraham	-10655
▁Perfect	-10656
▁exhaust	-10657
▁moronic	-10658
▁prequel	-10659
▁pursuit	-10660
▁witches	-10661
▁wounded	-10662
▁Interest	-10663
▁arguably	-10664
▁borrowed	-10665
▁composer	-10666
▁exchange	-10667
▁remained	-10668
▁solution	-10669
▁southern	-10670
tenborough	-10671
▁Tarantino	-10672
▁Therefore	-10673
▁inability	-10674
▁objective	-10675
▁subjected	-10676
▁conditions	-10677
▁enthusiasm	-10678
▁educational	-10679
▁improvement	-10680
▁Christianity	-10681
▁significance	-10682
▁unpredictable	-10683
99	-10684
HO	-10685
MA	-10686
olt	-10687
uno	-10688
▁Ba	-10689
arer	-10690
enth	-10691
make	-10692
oddy	-10693
▁CAN	-10694
▁DON	-10695
▁lip	-10696
These	-10697
neyed	-10698
▁....	-10699
▁Cube	-10700
▁Font	-10701
▁Gret	-10702
▁Post	-10703
▁bite	-10704
▁curs	-10705
▁degr	-10706
▁milk	-10707
▁tact	-10708
George	-10709
apable	-10710
guided	-10711
itated	-10712
motion	-10713
▁Hawke	-10714
▁Kumar	-10715
▁Pearl	-10716
▁grief	-10717
▁mafia	-10718
▁skull	-10719
▁sweat	-10720
through	-10721
▁Action	-10722
▁Justin	-10723
▁Middle	-10724
▁Nobody	-10725
▁Origin	-10726
▁Russia	-10727
▁awhile	-10728
▁circle	-10729
▁minded	-10730
▁raises	-10731
▁seduct	-10732
▁senses	-10733
▁tastes	-10734
pendence	-10735
▁Preston	-10736
▁Robbins	-10737
▁defined	-10738
▁desires	-10739
▁landing	-10740
▁loyalty	-10741
▁matched	-10742
▁recover	-10743
▁Sunshine	-10744
▁accuracy	-10745
▁campaign	-10746
▁invented	-10747
▁sounding	-10748
▁stumbled	-10749
▁MacArthur	-10750
▁biography	-10751
▁fashioned	-10752
▁resulting	-10753
▁uplifting	-10754
▁Absolutely	-10755
▁complaints	-10756
▁lackluster	-10757
▁wilderness	-10758
▁alternative	-10759
▁fascination	-10760
▁provocative	-10761
▁difficulties	-10762
▁interactions	-10763
ji	-10764
Ben	-10765
Can	-10766
kel	-10767
mmm	-10768
rin	-10769
rum	-10770
▁Wy	-10771
atum	-10772
aved	-10773
avez	-10774
bust	-10775
ints	-10776
oria	-10777
reet	-10778
rome	-10779
stru	-10780
talk	-10781
wear	-10782
▁---	-10783
▁Dud	-10784
▁Jet	-10785
▁Pig	-10786
▁bee	-10787
▁ori	-10788
▁tom	-10789
▁vom	-10790
House	-10791
asted	-10792
drama	-10793
ensen	-10794
ersed	-10795
ricia	-10796
ucing	-10797
▁/>1.	-10798
▁Foxx	-10799
▁darn	-10800
▁dile	-10801
▁fist	-10802
▁shif	-10803
▁sums	-10804
▁wars	-10805
aneous	-10806
modern	-10807
oopers	-10808
▁Alone	-10809
▁Chief	-10810
▁Ethan	-10811
▁Keith	-10812
▁bread	-10813
▁chees	-10814
▁greed	-10815
▁joins	-10816
▁rates	-10817
▁roots	-10818
▁shaky	-10819
▁tacky	-10820
▁wakes	-10821
agement	-10822
itizens	-10823
thought	-10824
visible	-10825
▁Clarke	-10826
▁Downey	-10827
▁Either	-10828
▁Malone	-10829
▁Pierce	-10830
▁Strong	-10831
▁abused	-10832
▁chicks	-10833
▁fought	-10834
▁ponder	-10835
▁wildly	-10836
osterous	-10837
▁Hopkins	-10838
▁Palance	-10839
▁Raymond	-10840
▁antagon	-10841
▁checked	-10842
▁females	-10843
▁orchest	-10844
▁psychic	-10845
▁refused	-10846
oneliness	-10847
▁Marshall	-10848
▁blackmail	-10849
▁precisely	-10850
▁primitive	-10851
▁respected	-10852
▁shoulders	-10853
▁silliness	-10854
▁depression	-10855
▁frightened	-10856
▁misleading	-10857
▁counterpart	-10858
▁frustrating	-10859
dem	-10860
eor	-10861
mad	-10862
oad	-10863
▁1,	-10864
▁KN	-10865
▁SP	-10866
▁ya	-10867
Best	-10868
Last	-10869
ctic	-10870
dies	-10871
evil	-10872
held	-10873
hist	-10874
ipid	-10875
lied	-10876
mber	-10877
name	-10878
spir	-10879
uaid	-10880
ylum	-10881
▁MTV	-10882
▁Odd	-10883
▁gym	-10884
Avoid	-10885
Death	-10886
ellig	-10887
urned	-10888
▁Amit	-10889
▁Comb	-10890
▁Gard	-10891
▁dose	-10892
▁neur	-10893
▁prey	-10894
▁sear	-10895
▁soci	-10896
▁ster	-10897
▁tank	-10898
▁whis	-10899
anghai	-10900
atured	-10901
emesis	-10902
orders	-10903
really	-10904
urning	-10905
▁1930'	-10906
▁Dance	-10907
▁Early	-10908
▁Funny	-10909
▁Sound	-10910
▁Union	-10911
▁balls	-10912
▁decor	-10913
▁enthr	-10914
▁lands	-10915
▁petty	-10916
▁recre	-10917
▁tripe	-10918
attract	-10919
perhaps	-10920
▁Eugene	-10921
▁Newman	-10922
▁Whoopi	-10923
▁astron	-10924
▁ballet	-10925
▁choppy	-10926
▁narrow	-10927
▁phrase	-10928
▁puppet	-10929
▁report	-10930
▁rising	-10931
▁shared	-10932
▁glasses	-10933
▁muddled	-10934
▁ordered	-10935
▁peoples	-10936
▁quietly	-10937
▁teaches	-10938
▁Basinger	-10939
▁audition	-10940
▁musician	-10941
▁absurdity	-10942
▁encourage	-10943
▁musicians	-10944
▁priceless	-10945
▁suggested	-10946
▁unlikable	-10947
▁basketball	-10948
particularly	-10949
▁caricatures	-10950
▁celebration	-10951
▁complaining	-10952
▁fundamental	-10953
▁sensational	-10954
▁respectively	-10955
▁appropriately	-10956
▁dysfunctional	-10957
EP	-10958
FT	-10959
Gu	-10960
▁x	-10961
!"<	-10962
Big	-10963
IES	-10964
OUR	-10965
cel	-10966
ika	-10967
iti	-10968
lix	-10969
▁1)	-10970
▁TW	-10971
dead	-10972
essa	-10973
load	-10974
onto	-10975
▁Duv	-10976
▁Fra	-10977
▁Got	-10978
abled	-10979
adise	-10980
ghter	-10981
notch	-10982
power	-10983
▁Bert	-10984
▁Conf	-10985
▁Free	-10986
▁Game	-10987
▁Gwyn	-10988
▁Joel	-10989
▁Lamb	-10990
▁Lang	-10991
▁Magn	-10992
▁Morm	-10993
▁Ruby	-10994
▁Side	-10995
▁aest	-10996
▁boom	-10997
▁dele	-10998
▁laws	-10999
▁mode	-11000
▁mort	-11001
▁rely	-11002
▁worn	-11003
acking	-11004
aughty	-11005
ierney	-11006
length	-11007
▁Bible	-11008
▁McCoy	-11009
▁Nolan	-11010
▁Posey	-11011
▁Seven	-11012
▁Third	-11013
▁WATCH	-11014
▁angst	-11015
▁rifle	-11016
another	-11017
osition	-11018
▁Hammer	-11019
▁Marion	-11020
▁McCart	-11021
▁counts	-11022
▁dramat	-11023
▁noises	-11024
▁shoddy	-11025
▁sketch	-11026
▁sleaze	-11027
ications	-11028
▁Amazing	-11029
▁Classic	-11030
▁Friends	-11031
▁Luckily	-11032
▁Project	-11033
▁Ramones	-11034
▁Stooges	-11035
▁accepts	-11036
▁charged	-11037
▁destiny	-11038
▁dresses	-11039
▁objects	-11040
▁retired	-11041
▁servant	-11042
provoking	-11043
▁Chamberl	-11044
▁Nicholas	-11045
▁literary	-11046
▁realised	-11047
▁releases	-11048
▁roommate	-11049
▁Naturally	-11050
▁behaviour	-11051
▁fantasies	-11052
▁generated	-11053
▁hackneyed	-11054
▁heartfelt	-11055
▁occasions	-11056
▁policeman	-11057
▁conscience	-11058
▁conviction	-11059
▁imaginable	-11060
▁loneliness	-11061
▁discovering	-11062
▁automatically	-11063
▁simultaneously	-11064
''	-11065
uz	-11066
ALL	-11067
eur	-11068
pan	-11069
▁BR	-11070
▁gh	-11071
Niro	-11072
bast	-11073
chak	-11074
oday	-11075
▁191	-11076
▁Gib	-11077
▁ath	-11078
Peter	-11079
birds	-11080
blown	-11081
inned	-11082
stead	-11083
ustin	-11084
▁Gray	-11085
▁Minn	-11086
▁keen	-11087
▁mast	-11088
▁peak	-11089
▁rave	-11090
▁upst	-11091
Having	-11092
minger	-11093
▁Boyle	-11094
▁Cecil	-11095
▁Leigh	-11096
▁Logan	-11097
▁Schne	-11098
▁Vader	-11099
▁WORST	-11100
▁breed	-11101
▁bride	-11102
▁flair	-11103
▁shred	-11104
ifetime	-11105
▁August	-11106
▁Better	-11107
▁Brenda	-11108
▁Murray	-11109
▁Waters	-11110
▁cancer	-11111
▁confir	-11112
▁disast	-11113
daughter	-11114
▁Baldwin	-11115
▁Colonel	-11116
▁adopted	-11117
▁censors	-11118
▁chronic	-11119
▁chuckle	-11120
▁insipid	-11121
▁invites	-11122
▁kissing	-11123
▁miracle	-11124
▁outfits	-11125
▁remakes	-11126
identally	-11127
▁deranged	-11128
▁exposure	-11129
▁handling	-11130
▁referred	-11131
▁youngest	-11132
▁imitation	-11133
▁secondary	-11134
▁respective	-11135
▁coincidence	-11136
▁examination	-11137
▁Attenborough	-11138
▁Frankenstein	-11139
▁unexpectedly	-11140
pa	-11141
IRE	-11142
bye	-11143
car	-11144
occ	-11145
two	-11146
▁22	-11147
▁AR	-11148
▁HK	-11149
▁Ka	-11150
▁Ki	-11151
▁SF	-11152
auer	-11153
mers	-11154
neck	-11155
show	-11156
▁Jod	-11157
▁Lad	-11158
▁Rud	-11159
▁Sea	-11160
▁Slo	-11161
▁nod	-11162
andal	-11163
bound	-11164
ested	-11165
ettes	-11166
goers	-11167
lined	-11168
ppers	-11169
▁Bost	-11170
▁Grim	-11171
▁Rita	-11172
▁Snow	-11173
▁Wang	-11174
▁bump	-11175
▁meas	-11176
Before	-11177
Brazil	-11178
actory	-11179
encies	-11180
epburn	-11181
ission	-11182
▁1980'	-11183
▁Champ	-11184
▁Hotel	-11185
▁Inter	-11186
▁Kline	-11187
▁Randy	-11188
▁Until	-11189
▁atroc	-11190
▁delic	-11191
▁pages	-11192
▁prize	-11193
▁rings	-11194
▁rises	-11195
▁tomat	-11196
▁twins	-11197
▁vocal	-11198
pecting	-11199
uration	-11200
▁Forget	-11201
▁Fuller	-11202
▁Pamela	-11203
▁Paxton	-11204
▁active	-11205
▁agenda	-11206
▁masses	-11207
▁option	-11208
▁owners	-11209
▁refuge	-11210
▁shares	-11211
▁twelve	-11212
▁Amitabh	-11213
▁Antwone	-11214
▁Bernard	-11215
▁Daniels	-11216
▁devices	-11217
▁invited	-11218
▁posters	-11219
▁rehears	-11220
▁screens	-11221
▁singers	-11222
▁victory	-11223
▁Laurence	-11224
▁Massacre	-11225
▁Pictures	-11226
▁Republic	-11227
▁aristocr	-11228
▁aspiring	-11229
▁citizens	-11230
▁contempt	-11231
▁deserted	-11232
▁historic	-11233
▁infected	-11234
▁premiere	-11235
▁rational	-11236
▁substant	-11237
▁Everybody	-11238
▁confident	-11239
▁misguided	-11240
▁operation	-11241
▁startling	-11242
▁viewpoint	-11243
▁challenges	-11244
▁hopelessly	-11245
▁indication	-11246
▁Recommended	-11247
▁conventions	-11248
▁experimental	-11249
▁historically	-11250
▁inconsistent	-11251
▁preposterous	-11252
//	-11253
Wr	-11254
Ye	-11255
IST	-11256
dys	-11257
fet	-11258
hin	-11259
▁''	-11260
▁2-	-11261
▁AF	-11262
▁ME	-11263
▁ta	-11264
Dark	-11265
bone	-11266
emet	-11267
ghan	-11268
leen	-11269
ober	-11270
pres	-11271
▁BIG	-11272
▁Div	-11273
▁Elm	-11274
▁Ern	-11275
▁Gle	-11276
▁Nas	-11277
▁Six	-11278
▁Tak	-11279
arson	-11280
eline	-11281
inist	-11282
itzer	-11283
oodle	-11284
ureau	-11285
▁Pete	-11286
▁Road	-11287
▁edgy	-11288
▁epit	-11289
ifties	-11290
orsese	-11291
person	-11292
▁Meryl	-11293
▁Shame	-11294
▁dilem	-11295
▁gloom	-11296
▁hokey	-11297
▁realm	-11298
▁ships	-11299
▁showc	-11300
▁waves	-11301
covered	-11302
▁Angels	-11303
▁Austin	-11304
▁Follow	-11305
▁Incred	-11306
▁Sharon	-11307
▁chills	-11308
▁hammer	-11309
▁namely	-11310
▁posted	-11311
▁prince	-11312
▁stages	-11313
ventures	-11314
▁Bridget	-11315
▁Sabrina	-11316
▁chapter	-11317
▁conveys	-11318
▁pitiful	-11319
▁visited	-11320
▁designer	-11321
▁gambling	-11322
▁harmless	-11323
▁reflects	-11324
▁regarded	-11325
▁rejected	-11326
▁tracking	-11327
▁visiting	-11328
▁Professor	-11329
▁amusement	-11330
▁murdering	-11331
▁receiving	-11332
▁threatens	-11333
▁disappears	-11334
▁landscapes	-11335
▁positively	-11336
▁weaknesses	-11337
▁anticipation	-11338
▁recommendation	-11339
90	-11340
FE	-11341
-13	-11342
Col	-11343
DVD	-11344
END	-11345
Jim	-11346
Pro	-11347
bow	-11348
cci	-11349
dis	-11350
dra	-11351
eff	-11352
▁WT	-11353
asco	-11354
date	-11355
pton	-11356
warf	-11357
▁30'	-11358
▁Abb	-11359
▁Syl	-11360
▁Tok	-11361
▁org	-11362
▁tap	-11363
onoun	-11364
ranos	-11365
vance	-11366
▁Aunt	-11367
▁Bugs	-11368
▁Cong	-11369
▁Fast	-11370
▁Gall	-11371
▁Gere	-11372
▁Hain	-11373
▁Hust	-11374
▁cher	-11375
▁fade	-11376
▁flee	-11377
▁fles	-11378
▁gear	-11379
▁rats	-11380
▁vain	-11381
▁vein	-11382
ainsaw	-11383
heimer	-11384
icidal	-11385
iculty	-11386
ounded	-11387
▁Chand	-11388
▁March	-11389
▁Sissy	-11390
▁abund	-11391
▁alleg	-11392
▁banal	-11393
▁dimin	-11394
▁rebel	-11395
▁skits	-11396
comings	-11397
instein	-11398
▁Alicia	-11399
▁Chavez	-11400
▁DeNiro	-11401
▁Office	-11402
▁Powers	-11403
▁Reeves	-11404
▁Simply	-11405
▁Stuart	-11406
▁Sudden	-11407
▁awaken	-11408
▁guests	-11409
▁hippie	-11410
▁iconic	-11411
▁launch	-11412
▁loaded	-11413
▁offend	-11414
▁outing	-11415
▁roller	-11416
directed	-11417
renching	-11418
▁Tierney	-11419
▁address	-11420
▁caliber	-11421
▁emerges	-11422
▁filling	-11423
▁glowing	-11424
▁promote	-11425
▁radical	-11426
▁sixties	-11427
▁swallow	-11428
▁venture	-11429
idescreen	-11430
▁Sopranos	-11431
▁betrayal	-11432
▁previews	-11433
▁reported	-11434
▁severely	-11435
attractive	-11436
▁ignorance	-11437
▁incorrect	-11438
▁selection	-11439
▁strongest	-11440
▁difficulty	-11441
▁sympathize	-11442
▁inexplicably	-11443
,(	-11444
>>	-11445
AME	-11446
VEN	-11447
dad	-11448
iki	-11449
ota	-11450
vas	-11451
voc	-11452
▁HE	-11453
▁IV	-11454
Many	-11455
Mart	-11456
Okay	-11457
apse	-11458
asse	-11459
ffic	-11460
gins	-11461
kish	-11462
oven	-11463
racy	-11464
ropa	-11465
vell	-11466
▁'70	-11467
▁Say	-11468
▁Sox	-11469
▁WWE	-11470
▁Woo	-11471
▁mac	-11472
▁ven	-11473
Which	-11474
actor	-11475
ardly	-11476
atman	-11477
gends	-11478
icken	-11479
ipher	-11480
itsch	-11481
uller	-11482
▁/>2.	-11483
▁2005	-11484
▁DEAD	-11485
▁Foot	-11486
▁Half	-11487
▁Holl	-11488
▁Left	-11489
▁Note	-11490
▁Pumb	-11491
▁glee	-11492
▁lens	-11493
▁pulp	-11494
▁sque	-11495
▁stim	-11496
▁zoom	-11497
atable	-11498
ernand	-11499
everly	-11500
omeday	-11501
▁1960'	-11502
▁Brand	-11503
▁Cliff	-11504
▁Cohen	-11505
▁Tyler	-11506
▁Warri	-11507
▁brown	-11508
▁cloud	-11509
▁cream	-11510
▁drove	-11511
▁fifty	-11512
▁hammy	-11513
▁homes	-11514
▁minus	-11515
▁quant	-11516
ighters	-11517
▁Corman	-11518
▁Esther	-11519
▁Hughes	-11520
▁Jordan	-11521
▁Kansas	-11522
▁Lester	-11523
▁Spacey	-11524
▁biased	-11525
▁grainy	-11526
▁libert	-11527
▁lifted	-11528
▁locals	-11529
▁redund	-11530
▁underm	-11531
probably	-11532
▁Beatles	-11533
▁Brendan	-11534
▁Central	-11535
▁cigaret	-11536
▁cruelty	-11537
▁fingers	-11538
▁heading	-11539
▁hearted	-11540
▁hunters	-11541
character	-11542
▁Fontaine	-11543
▁conclude	-11544
▁credited	-11545
▁disguise	-11546
▁entitled	-11547
▁explores	-11548
▁teachers	-11549
▁Preminger	-11550
▁mentality	-11551
▁reluctant	-11552
▁strangers	-11553
▁adolescent	-11554
▁despicable	-11555
▁exceptions	-11556
▁obligatory	-11557
▁portrayals	-11558
▁regardless	-11559
▁Furthermore	-11560
▁communicate	-11561
▁understands	-11562
▁shortcomings	-11563
ua	-11564
://	-11565
ART	-11566
FUL	-11567
dig	-11568
eem	-11569
ttp	-11570
wee	-11571
▁2:	-11572
▁Ak	-11573
▁ec	-11574
EASE	-11575
Love	-11576
Plan	-11577
ador	-11578
brid	-11579
chor	-11580
days	-11581
ouri	-11582
ping	-11583
robe	-11584
symp	-11585
yard	-11586
ylan	-11587
▁Hag	-11588
▁Liz	-11589
▁Rel	-11590
*****	-11591
backs	-11592
eding	-11593
geant	-11594
inson	-11595
named	-11596
ubble	-11597
utive	-11598
▁Fitz	-11599
▁Head	-11600
▁Hend	-11601
▁Jews	-11602
▁Lois	-11603
▁Omen	-11604
▁Tele	-11605
▁Walt	-11606
▁Wing	-11607
▁coup	-11608
▁eats	-11609
▁penn	-11610
▁span	-11611
corder	-11612
inness	-11613
itchie	-11614
▁Ebert	-11615
▁Gersh	-11616
▁Tiger	-11617
▁bitch	-11618
▁drift	-11619
▁heist	-11620
▁memor	-11621
▁unimp	-11622
fashion	-11623
winning	-11624
writing	-11625
▁Amazon	-11626
▁Duvall	-11627
▁Empire	-11628
▁Naschy	-11629
▁Nicole	-11630
▁Steele	-11631
▁angels	-11632
▁mayhem	-11633
▁oldest	-11634
▁preced	-11635
▁reader	-11636
▁rhythm	-11637
▁savage	-11638
▁seldom	-11639
▁stores	-11640
mittedly	-11641
▁Bronson	-11642
▁Gregory	-11643
▁Justice	-11644
▁Studios	-11645
▁Whoever	-11646
▁forcing	-11647
▁hapless	-11648
▁insists	-11649
▁judging	-11650
▁morally	-11651
▁transpl	-11652
▁vibrant	-11653
▁Scorsese	-11654
▁Springer	-11655
▁feminist	-11656
▁prisoner	-11657
▁shouting	-11658
▁studying	-11659
▁suitably	-11660
▁Detective	-11661
▁admirable	-11662
▁befriends	-11663
▁comedians	-11664
▁profanity	-11665
▁prominent	-11666
▁resurrect	-11667
▁terrified	-11668
▁universal	-11669
▁contradict	-11670
▁presenting	-11671
▁Technicolor	-11672
▁unexplained	-11673
▁considerably	-11674
▁representation	-11675
HH	-11676
OY	-11677
Ind	-11678
dan	-11679
hot	-11680
iba	-11681
icy	-11682
jay	-11683
oen	-11684
zes	-11685
▁IF	-11686
▁WR	-11687
▁tv	-11688
Only	-11689
gian	-11690
herd	-11691
raph	-11692
vals	-11693
▁CON	-11694
▁Lar	-11695
▁Soc	-11696
▁Und	-11697
▁anc	-11698
▁bul	-11699
.5/10	-11700
ardom	-11701
atton	-11702
balls	-11703
creat	-11704
eches	-11705
girls	-11706
itate	-11707
olden	-11708
▁Alec	-11709
▁Fans	-11710
▁WITH	-11711
▁caut	-11712
▁cope	-11713
▁enig	-11714
▁flim	-11715
▁gems	-11716
▁slut	-11717
▁unsu	-11718
Rating	-11719
ffects	-11720
filled	-11721
ocaust	-11722
okemon	-11723
▁Major	-11724
▁Theat	-11725
▁backs	-11726
▁couch	-11727
▁crook	-11728
▁intro	-11729
▁spont	-11730
▁steel	-11731
▁towns	-11732
▁whale	-11733
berlake	-11734
nothing	-11735
rection	-11736
working	-11737
▁Buster	-11738
▁Harold	-11739
▁Writer	-11740
▁assert	-11741
▁banter	-11742
▁butler	-11743
▁filler	-11744
▁firing	-11745
▁newcom	-11746
▁perman	-11747
▁resear	-11748
▁struct	-11749
▁Believe	-11750
▁Gillian	-11751
▁Hepburn	-11752
▁Othello	-11753
▁collaps	-11754
▁fishing	-11755
▁painter	-11756
▁Phillips	-11757
▁Terrible	-11758
▁defeated	-11759
▁dressing	-11760
▁immature	-11761
▁lifeless	-11762
▁overlong	-11763
▁shoulder	-11764
▁insurance	-11765
▁misfortun	-11766
▁uncertain	-11767
▁unrelated	-11768
▁admittedly	-11769
▁discussing	-11770
▁psychology	-11771
▁translated	-11772
▁Blockbuster	-11773
▁inhabitants	-11774
▁transformed	-11775
▁heartwarming	-11776
gt	-11777
uv	-11778
mus	-11779
typ	-11780
▁Dy	-11781
▁Os	-11782
Sure	-11783
aron	-11784
isty	-11785
lord	-11786
▁Gyp	-11787
▁Las	-11788
▁Loy	-11789
▁Sho	-11790
Title	-11791
arker	-11792
comes	-11793
encer	-11794
▁/>3.	-11795
▁2/10	-11796
▁Cand	-11797
▁Pink	-11798
▁Whit	-11799
▁bike	-11800
▁merc	-11801
▁succ	-11802
▁tomb	-11803
arious	-11804
incarn	-11805
unless	-11806
▁Among	-11807
▁Ariel	-11808
▁Beast	-11809
▁Scary	-11810
▁Small	-11811
▁State	-11812
▁Storm	-11813
▁artic	-11814
▁coast	-11815
▁diver	-11816
▁ocean	-11817
▁paran	-11818
▁route	-11819
▁slimy	-11820
▁unsus	-11821
atively	-11822
fetched	-11823
ilation	-11824
special	-11825
▁Danger	-11826
▁Others	-11827
▁Portug	-11828
▁Surely	-11829
▁asylum	-11830
▁depend	-11831
▁margin	-11832
▁rapist	-11833
▁remade	-11834
▁steady	-11835
▁wander	-11836
▁Corbett	-11837
▁Cushing	-11838
▁abandon	-11839
▁butcher	-11840
▁fathers	-11841
▁knocked	-11842
▁marries	-11843
▁prepare	-11844
▁screwed	-11845
▁shorter	-11846
▁tempted	-11847
▁Christie	-11848
▁Straight	-11849
▁claiming	-11850
▁delicate	-11851
▁programs	-11852
▁recycled	-11853
▁shopping	-11854
▁stumbles	-11855
▁acclaimed	-11856
▁blatantly	-11857
▁completed	-11858
▁departure	-11859
▁glamorous	-11860
▁paintings	-11861
▁similarly	-11862
▁additional	-11863
▁challenged	-11864
▁definitive	-11865
▁inevitably	-11866
▁phenomenon	-11867
▁demonstrates	-11868
ATH	-11869
Ant	-11870
IDE	-11871
Pol	-11872
Red	-11873
has	-11874
kas	-11875
oqu	-11876
rob	-11877
rup	-11878
▁HU	-11879
▁UP	-11880
apid	-11881
elic	-11882
eson	-11883
geon	-11884
inds	-11885
izer	-11886
oler	-11887
oyle	-11888
quin	-11889
tick	-11890
ulse	-11891
unga	-11892
usty	-11893
▁Bug	-11894
▁COM	-11895
▁FIL	-11896
▁Lor	-11897
▁Roh	-11898
▁Yok	-11899
▁ans	-11900
▁cos	-11901
▁dow	-11902
▁lic	-11903
▁lux	-11904
▁pie	-11905
Never	-11906
along	-11907
heads	-11908
irsty	-11909
onent	-11910
still	-11911
uters	-11912
▁Camb	-11913
▁Cris	-11914
▁Dana	-11915
▁Giov	-11916
▁Gram	-11917
▁IMDB	-11918
▁Lenn	-11919
▁Room	-11920
▁View	-11921
▁WHAT	-11922
▁apes	-11923
▁brat	-11924
▁estr	-11925
▁rail	-11926
▁skit	-11927
▁solo	-11928
▁vice	-11929
Little	-11930
bourne	-11931
quette	-11932
walker	-11933
▁Alvin	-11934
▁Bacon	-11935
▁Buddy	-11936
▁Carey	-11937
▁Games	-11938
▁Olymp	-11939
▁Trier	-11940
▁boxer	-11941
▁casts	-11942
▁fluid	-11943
▁hides	-11944
▁messy	-11945
▁newer	-11946
▁skept	-11947
▁uncut	-11948
▁voted	-11949
sworthy	-11950
▁Boston	-11951
▁Martha	-11952
▁Native	-11953
▁Purple	-11954
▁Savage	-11955
▁Should	-11956
▁agency	-11957
▁charms	-11958
▁crazed	-11959
▁debate	-11960
▁framed	-11961
▁garden	-11962
▁layers	-11963
▁liners	-11964
▁meteor	-11965
▁outlaw	-11966
▁pedest	-11967
▁retire	-11968
▁revers	-11969
▁sooner	-11970
▁stairs	-11971
▁trials	-11972
▁unseen	-11973
▁edition	-11974
▁energet	-11975
▁handles	-11976
▁melting	-11977
▁praised	-11978
▁sending	-11979
▁serving	-11980
▁surgery	-11981
irlfriend	-11982
▁ambition	-11983
▁comprehe	-11984
▁employed	-11985
▁internal	-11986
▁judgment	-11987
▁neurotic	-11988
▁rendered	-11989
▁thrilled	-11990
▁housewife	-11991
▁ingenious	-11992
▁preferred	-11993
▁repeating	-11994
▁acceptance	-11995
▁accurately	-11996
▁cartoonish	-11997
▁controlled	-11998
▁insightful	-11999
▁underneath	-12000
▁connections	-12001
▁continually	-12002
▁differently	-12003
▁inexplicable	-12004
▁assassination	-12005
▁investigating	-12006
▁claustrophobic	-12007
Fl	-12008
UST	-12009
haw	-12010
olo	-12011
vyn	-12012
yet	-12013
▁SG	-12014
aise	-12015
ikes	-12016
ollo	-12017
runs	-12018
uary	-12019
umes	-12020
▁Bos	-12021
▁DeM	-12022
▁Nat	-12023
▁Paz	-12024
▁rig	-12025
▁tab	-12026
▁tip	-12027
▁wax	-12028
alker	-12029
chair	-12030
eling	-12031
enson	-12032
eting	-12033
hetti	-12034
omber	-12035
oming	-12036
▁AIDS	-12037
▁Cany	-12038
▁Drey	-12039
▁Gina	-12040
▁Malt	-12041
▁Prom	-12042
▁Vill	-12043
▁Wait	-12044
▁bast	-12045
▁echo	-12046
▁grin	-12047
▁leth	-12048
▁musc	-12049
▁rabb	-12050
▁wire	-12051
family	-12052
▁Rosen	-12053
▁deriv	-12054
▁femme	-12055
▁hangs	-12056
▁macho	-12057
▁spree	-12058
▁vital	-12059
Nothing	-12060
amiliar	-12061
imation	-12062
ortions	-12063
ulating	-12064
▁Screen	-12065
▁Wilder	-12066
▁chorus	-12067
▁exceed	-12068
▁farmer	-12069
▁firmly	-12070
▁infant	-12071
▁nights	-12072
▁refuse	-12073
▁remove	-12074
▁sorely	-12075
▁Ritchie	-12076
▁assured	-12077
▁conduct	-12078
▁deleted	-12079
▁enhance	-12080
▁preachy	-12081
▁warming	-12082
▁Pickford	-12083
▁clueless	-12084
▁concepts	-12085
▁duration	-12086
▁elevator	-12087
▁forgiven	-12088
▁husbands	-12089
▁insanity	-12090
▁midnight	-12091
▁outdated	-12092
▁outright	-12093
▁Hopefully	-12094
▁disgusted	-12095
▁nightclub	-12096
▁publicity	-12097
▁uniformly	-12098
▁Cassavetes	-12099
▁commenting	-12100
▁Chamberlain	-12101
▁Goldsworthy	-12102
▁authorities	-12103
▁predecessor	-12104
▁recognizable	-12105
":	-12106
)!	-12107
Did	-12108
Pat	-12109
flu	-12110
gio	-12111
gra	-12112
oda	-12113
wer	-12114
▁!!	-12115
▁"1	-12116
▁8.	-12117
▁eg	-12118
Dead	-12119
Hara	-12120
arks	-12121
asha	-12122
blum	-12123
bral	-12124
deal	-12125
dest	-12126
enez	-12127
iard	-12128
nger	-12129
olis	-12130
ombi	-12131
otti	-12132
owed	-12133
road	-12134
roit	-12135
west	-12136
word	-12137
▁Bab	-12138
▁Jar	-12139
▁Jol	-12140
▁Len	-12141
▁Mau	-12142
▁Nap	-12143
▁Wol	-12144
▁egg	-12145
Movie	-12146
Since	-12147
comed	-12148
gener	-12149
guard	-12150
ieves	-12151
inous	-12152
lucky	-12153
quire	-12154
rophe	-12155
▁2004	-12156
▁Beth	-12157
▁Buff	-12158
▁Know	-12159
▁Oper	-12160
▁Rent	-12161
▁SOME	-12162
▁Upon	-12163
▁deny	-12164
▁dope	-12165
▁ghet	-12166
▁info	-12167
▁plag	-12168
▁seam	-12169
▁unem	-12170
▁vign	-12171
Direct	-12172
ainted	-12173
driven	-12174
ermaid	-12175
mostly	-12176
umming	-12177
▁Boyer	-12178
▁Color	-12179
▁Giant	-12180
▁Robot	-12181
▁Stack	-12182
▁Stock	-12183
▁disci	-12184
▁dwell	-12185
▁mirac	-12186
▁mummy	-12187
▁seedy	-12188
▁setup	-12189
▁swing	-12190
▁token	-12191
emetery	-12192
eworthy	-12193
iblical	-12194
ielding	-12195
iolence	-12196
iseries	-12197
playing	-12198
▁Beauty	-12199
▁Canyon	-12200
▁Hadley	-12201
▁Huston	-12202
▁League	-12203
▁ancest	-12204
▁barrel	-12205
▁boasts	-12206
▁disreg	-12207
▁fetish	-12208
▁giallo	-12209
▁insomn	-12210
▁motive	-12211
▁societ	-12212
▁static	-12213
▁Affleck	-12214
▁Emperor	-12215
▁Kolchak	-12216
▁Running	-12217
▁Shining	-12218
▁Soldier	-12219
▁academy	-12220
▁grounds	-12221
▁helpful	-12222
▁natives	-12223
▁physics	-12224
▁punches	-12225
▁rooting	-12226
▁Harrison	-12227
▁brooding	-12228
▁dazzling	-12229
▁immortal	-12230
▁mistress	-12231
▁speeches	-12232
▁suburban	-12233
▁symbolic	-12234
▁youthful	-12235
production	-12236
▁Armstrong	-12237
▁Brilliant	-12238
▁Knightley	-12239
▁Paramount	-12240
▁astronaut	-12241
▁backwards	-12242
▁deserving	-12243
▁evolution	-12244
▁exploring	-12245
▁isolation	-12246
▁justified	-12247
▁Enterprise	-12248
▁approaches	-12249
▁disastrous	-12250
▁mannerisms	-12251
▁miniseries	-12252
▁suggestion	-12253
▁comparisons	-12254
20	-12255
AG	-12256
Sl	-12257
UE	-12258
!".	-12259
?"<	-12260
DER	-12261
Jul	-12262
ORY	-12263
Yet	-12264
cal	-12265
lad	-12266
usp	-12267
▁AM	-12268
▁Sa	-12269
▁ly	-12270
ALLY	-12271
inks	-12272
ixar	-12273
lime	-12274
note	-12275
vial	-12276
your	-12277
▁BSG	-12278
▁Gay	-12279
▁Ins	-12280
▁Mam	-12281
▁WHO	-12282
▁hij	-12283
▁neo	-12284
Super	-12285
aints	-12286
arios	-12287
erner	-12288
gency	-12289
isted	-12290
rable	-12291
rings	-12292
ulent	-12293
ussie	-12294
▁Clay	-12295
▁FILM	-12296
▁Gang	-12297
▁Milo	-12298
▁bulk	-12299
▁buzz	-12300
▁laun	-12301
▁pour	-12302
▁repr	-12303
▁vary	-12304
▁vile	-12305
irties	-12306
moving	-12307
ortant	-12308
utions	-12309
▁Bates	-12310
▁Bland	-12311
▁Bunny	-12312
▁Crazy	-12313
▁Lukas	-12314
▁Mason	-12315
▁Speed	-12316
▁alley	-12317
▁decap	-12318
▁incon	-12319
▁nails	-12320
▁niece	-12321
▁pecul	-12322
▁scrap	-12323
▁squad	-12324
▁sugar	-12325
▁votes	-12326
atement	-12327
▁Awards	-12328
▁Beyond	-12329
▁Warhol	-12330
▁circus	-12331
▁ladder	-12332
▁modest	-12333
▁obtain	-12334
▁refers	-12335
▁subtly	-12336
▁topics	-12337
▁Country	-12338
▁Gilliam	-12339
▁Toronto	-12340
▁affects	-12341
▁artwork	-12342
▁compete	-12343
▁fulfill	-12344
▁healthy	-12345
▁percent	-12346
▁records	-12347
▁samurai	-12348
▁someday	-12349
▁sublime	-12350
▁subtext	-12351
▁wanders	-12352
inchester	-12353
▁Goldblum	-12354
▁Guinness	-12355
▁Normally	-12356
▁activity	-12357
▁addicted	-12358
▁destined	-12359
▁grateful	-12360
▁needless	-12361
▁Fishburne	-12362
▁Valentine	-12363
▁camcorder	-12364
▁demanding	-12365
▁organized	-12366
▁partially	-12367
▁realities	-12368
▁satirical	-12369
▁specially	-12370
▁transform	-12371
▁Revolution	-12372
▁engrossing	-12373
▁guaranteed	-12374
▁relentless	-12375
▁suspension	-12376
▁threatened	-12377
▁unlikeable	-12378
KS	-12379
rr	-12380
Bad	-12381
Les	-12382
New	-12383
Ret	-12384
Sam	-12385
hop	-12386
www	-12387
Mean	-12388
aggy	-12389
bill	-12390
esse	-12391
gles	-12392
iami	-12393
imon	-12394
orey	-12395
tery	-12396
▁Bry	-12397
▁Clo	-12398
▁Exp	-12399
▁Hig	-12400
▁Liu	-12401
▁Loc	-12402
▁MAD	-12403
▁nit	-12404
ipper	-12405
obile	-12406
ourse	-12407
owulf	-12408
rison	-12409
super	-12410
ypher	-12411
▁Cort	-12412
▁Happ	-12413
▁craz	-12414
▁curt	-12415
▁deem	-12416
▁hust	-12417
▁lend	-12418
▁omin	-12419
▁slip	-12420
▁tops	-12421
▁turd	-12422
▁wolf	-12423
asting	-12424
inator	-12425
normal	-12426
placed	-12427
▁Apple	-12428
▁Creat	-12429
▁Kazan	-12430
▁Nolte	-12431
▁Order	-12432
▁bully	-12433
▁cheek	-12434
▁hires	-12435
▁males	-12436
▁mercy	-12437
▁peril	-12438
▁stare	-12439
achelor	-12440
idelity	-12441
ulously	-12442
▁Marlon	-12443
▁Nights	-12444
▁athlet	-12445
▁emerge	-12446
▁flashy	-12447
▁gained	-12448
▁hugely	-12449
▁legacy	-12450
▁neatly	-12451
▁smiles	-12452
▁weaker	-12453
▁Actress	-12454
▁Mathieu	-12455
▁Parsons	-12456
▁corpses	-12457
▁coupled	-12458
▁crashes	-12459
▁damaged	-12460
▁dubious	-12461
▁earnest	-12462
▁entered	-12463
▁factors	-12464
▁inspire	-12465
▁mothers	-12466
▁rapidly	-12467
▁shaking	-12468
▁sharing	-12469
▁trivial	-12470
▁visions	-12471
▁weather	-12472
▁windows	-12473
▁Lifetime	-12474
▁Spoilers	-12475
▁centered	-12476
▁critique	-12477
▁destroys	-12478
▁disorder	-12479
▁exploits	-12480
▁survives	-12481
ologically	-12482
▁Christine	-12483
▁Masterson	-12484
▁acknowled	-12485
▁computers	-12486
▁preparing	-12487
▁repulsive	-12488
▁strengths	-12489
sympathetic	-12490
▁compliment	-12491
▁describing	-12492
▁perception	-12493
▁politician	-12494
▁restrained	-12495
▁limitations	-12496
▁nominations	-12497
▁contribution	-12498
PS	-12499
ko	-12500
!",	-12501
Mad	-12502
Our	-12503
Ray	-12504
Sur	-12505
asi	-12506
fig	-12507
gud	-12508
imo	-12509
umi	-12510
uta	-12511
xic	-12512
▁.<	-12513
Rock	-12514
abre	-12515
atti	-12516
avin	-12517
comp	-12518
dele	-12519
eted	-12520
isle	-12521
moil	-12522
noir	-12523
ooke	-12524
tale	-12525
▁"10	-12526
▁Ble	-12527
▁DID	-12528
▁Joy	-12529
▁Kra	-12530
▁apt	-12531
▁gam	-12532
▁goo	-12533
▁kar	-12534
▁sou	-12535
Final	-12536
Lewis	-12537
cends	-12538
cheek	-12539
iffer	-12540
overs	-12541
rosby	-12542
urman	-12543
▁Cain	-12544
▁Judd	-12545
▁Kung	-12546
▁Scor	-12547
▁Shin	-12548
▁Wish	-12549
▁barb	-12550
▁belt	-12551
▁bree	-12552
▁clin	-12553
▁item	-12554
▁monk	-12555
▁narc	-12556
▁poll	-12557
▁yard	-12558
almost	-12559
headle	-12560
innear	-12561
orters	-12562
rating	-12563
▁Burke	-12564
▁Sleep	-12565
▁Trust	-12566
▁hitch	-12567
▁lasts	-12568
▁masks	-12569
▁whats	-12570
busters	-12571
iblings	-12572
umental	-12573
▁Always	-12574
▁Audrey	-12575
▁Truman	-12576
▁billed	-12577
▁centre	-12578
▁formed	-12579
▁frames	-12580
▁growth	-12581
▁handic	-12582
▁region	-12583
▁retrie	-12584
▁statue	-12585
▁supply	-12586
▁thrust	-12587
▁unsure	-12588
▁Georges	-12589
▁Lindsay	-12590
▁Looking	-12591
▁Loretta	-12592
▁Melissa	-12593
▁anyways	-12594
▁depends	-12595
▁doctors	-12596
▁inspect	-12597
▁insults	-12598
▁mirrors	-12599
▁quarter	-12600
▁ripping	-12601
▁schools	-12602
▁turmoil	-12603
▁entering	-12604
▁entirety	-12605
▁headache	-12606
▁hilarity	-12607
▁reincarn	-12608
▁Alexandre	-12609
▁convinces	-12610
▁energetic	-12611
▁exquisite	-12612
▁referring	-12613
▁testament	-12614
▁Timberlake	-12615
▁accessible	-12616
▁advertised	-12617
▁colleagues	-12618
▁confronted	-12619
▁containing	-12620
▁inaccurate	-12621
▁misfortune	-12622
▁mesmerizing	-12623
▁unsuspecting	-12624
▁unimaginative	-12625
/5	-12626
CR	-12627
ev	-12628
fr	-12629
kh	-12630
ERT	-12631
Ham	-12632
OUN	-12633
dep	-12634
doc	-12635
una	-12636
▁AD	-12637
▁CL	-12638
▁GO	-12639
OOOO	-12640
agle	-12641
ahan	-12642
ardo	-12643
cool	-12644
high	-12645
iana	-12646
ilia	-12647
kill	-12648
obby	-12649
orro	-12650
thon	-12651
▁ACT	-12652
▁CBS	-12653
▁Cos	-12654
▁OUT	-12655
▁Pas	-12656
▁coc	-12657
▁huh	-12658
adium	-12659
anche	-12660
andra	-12661
antha	-12662
arrot	-12663
asket	-12664
aurie	-12665
berry	-12666
esque	-12667
essed	-12668
hilar	-12669
istol	-12670
liest	-12671
owned	-12672
pling	-12673
ufact	-12674
▁Marx	-12675
▁Name	-12676
▁Rush	-12677
▁Surv	-12678
▁abdu	-12679
▁foil	-12680
▁owes	-12681
▁sale	-12682
▁smug	-12683
▁synd	-12684
▁unsc	-12685
before	-12686
ennett	-12687
hanger	-12688
orcist	-12689
outhed	-12690
ugging	-12691
▁Brain	-12692
▁Fever	-12693
▁Fried	-12694
▁Frost	-12695
▁Gable	-12696
▁Light	-12697
▁Naked	-12698
▁Party	-12699
▁Reeve	-12700
▁Truly	-12701
▁artsy	-12702
▁bible	-12703
▁error	-12704
▁glued	-12705
▁insec	-12706
▁mayor	-12707
▁spies	-12708
▁spine	-12709
version	-12710
▁Adrian	-12711
▁Behind	-12712
▁Conrad	-12713
▁Crosby	-12714
▁Harlow	-12715
▁Ingrid	-12716
▁Lennon	-12717
▁Potter	-12718
▁Spider	-12719
▁blacks	-12720
▁fatale	-12721
▁guards	-12722
▁nerves	-12723
▁prosec	-12724
▁vastly	-12725
▁Company	-12726
▁Kathryn	-12727
▁Mitchum	-12728
▁Muppets	-12729
▁Rangers	-12730
▁airport	-12731
▁dilemma	-12732
▁injured	-12733
▁lasting	-12734
▁located	-12735
▁puppets	-12736
▁vividly	-12737
fashioned	-12738
itionally	-12739
▁Charlton	-12740
▁Einstein	-12741
▁Horrible	-12742
▁Werewolf	-12743
▁abruptly	-12744
▁cracking	-12745
▁dropping	-12746
▁eventual	-12747
▁exterior	-12748
▁landmark	-12749
▁promptly	-12750
▁sticking	-12751
▁stopping	-12752
▁vehicles	-12753
ographical	-12754
▁crocodile	-12755
▁residents	-12756
▁sincerely	-12757
▁underwear	-12758
▁Thankfully	-12759
▁derivative	-12760
▁institution	-12761
▁masterfully	-12762
▁millionaire	-12763
▁photographs	-12764
Me	-12765
UD	-12766
Mat	-12767
OTH	-12768
Old	-12769
ags	-12770
axy	-12771
etc	-12772
omy	-12773
▁2"	-12774
▁99	-12775
▁BT	-12776
▁ol	-12777
Bill	-12778
Lost	-12779
Mary	-12780
anti	-12781
borg	-12782
buck	-12783
edge	-12784
eler	-12785
esar	-12786
iane	-12787
idan	-12788
impy	-12789
mund	-12790
obia	-12791
omic	-12792
opic	-12793
rita	-12794
uest	-12795
ware	-12796
yman	-12797
▁Der	-12798
▁Fat	-12799
▁Gos	-12800
▁Hob	-12801
▁Hog	-12802
▁Jaf	-12803
▁Leg	-12804
▁Mah	-12805
▁Moe	-12806
▁Ric	-12807
▁Sty	-12808
▁lam	-12809
▁poo	-12810
▁que	-12811
ester	-12812
genre	-12813
ierre	-12814
iture	-12815
keley	-12816
stood	-12817
unker	-12818
▁9/11	-12819
▁Cool	-12820
▁Luci	-12821
▁Mask	-12822
▁Prot	-12823
▁Test	-12824
▁Wong	-12825
▁akin	-12826
▁babe	-12827
▁bars	-12828
▁bent	-12829
▁buys	-12830
▁chem	-12831
▁debt	-12832
▁dont	-12833
▁hoot	-12834
▁hott	-12835
▁lean	-12836
▁ling	-12837
▁lock	-12838
▁mour	-12839
▁owns	-12840
▁pals	-12841
▁shoe	-12842
▁tent	-12843
lights	-12844
shadow	-12845
uentin	-12846
wolves	-12847
▁Bruno	-12848
▁Caron	-12849
▁Dreyf	-12850
▁Jared	-12851
▁Meyer	-12852
▁Mouse	-12853
▁blunt	-12854
▁cents	-12855
▁cohes	-12856
▁cries	-12857
▁dates	-12858
▁fraud	-12859
▁schol	-12860
▁smugg	-12861
entinel	-12862
inction	-12863
▁Danish	-12864
▁Kidman	-12865
▁Valley	-12866
▁depths	-12867
▁dismal	-12868
▁drinks	-12869
▁festiv	-12870
▁hungry	-12871
produced	-12872
▁Carlito	-12873
▁Machine	-12874
▁Pacific	-12875
▁Wedding	-12876
▁affairs	-12877
▁cheaply	-12878
▁chicken	-12879
▁cinemas	-12880
▁colours	-12881
▁dashing	-12882
▁demonic	-12883
▁demonst	-12884
▁eternal	-12885
▁expects	-12886
▁inflict	-12887
▁jarring	-12888
▁leather	-12889
▁melanch	-12890
▁proving	-12891
▁sensual	-12892
▁supreme	-12893
▁Patricia	-12894
▁advertis	-12895
▁answered	-12896
▁cerebral	-12897
▁conveyed	-12898
▁insights	-12899
▁invasion	-12900
▁reliable	-12901
▁reminder	-12902
▁resolved	-12903
▁scariest	-12904
▁servants	-12905
▁siblings	-12906
▁spirited	-12907
▁standout	-12908
▁triangle	-12909
▁Invisible	-12910
▁courtroom	-12911
▁decidedly	-12912
▁disguised	-12913
▁endlessly	-12914
▁identical	-12915
▁incapable	-12916
▁separated	-12917
▁spectacle	-12918
▁tormented	-12919
▁caricature	-12920
▁improbable	-12921
▁stunningly	-12922
▁undeniably	-12923
▁concentrate	-12924
▁demonstrate	-12925
▁expectation	-12926
▁authenticity	-12927
▁unattractive	-12928
▁inspirational	-12929
SH	-12930
ACT	-12931
ARE	-12932
Add	-12933
Car	-12934
ICK	-12935
IVE	-12936
rug	-12937
zzy	-12938
▁23	-12939
▁75	-12940
emen	-12941
math	-12942
unks	-12943
wide	-12944
▁ARE	-12945
▁Bil	-12946
▁Dur	-12947
▁Fil	-12948
▁Hou	-12949
▁Raw	-12950
▁Sor	-12951
▁TIM	-12952
▁Uma	-12953
▁Vol	-12954
▁Voy	-12955
▁beg	-12956
▁bug	-12957
▁dil	-12958
▁err	-12959
▁gor	-12960
arest	-12961
banks	-12962
cript	-12963
isode	-12964
olved	-12965
raged	-12966
sored	-12967
▁/>--	-12968
▁Asia	-12969
▁Barn	-12970
▁Blob	-12971
▁Fido	-12972
▁HAVE	-12973
▁Visc	-12974
▁YOUR	-12975
▁fuel	-12976
▁pill	-12977
▁pump	-12978
athing	-12979
binder	-12980
intage	-12981
sexual	-12982
▁Colin	-12983
▁Denis	-12984
▁Dylan	-12985
▁Hindi	-12986
▁Paula	-12987
▁Pitch	-12988
▁Train	-12989
▁blues	-12990
▁crisp	-12991
▁disin	-12992
▁heels	-12993
▁lunch	-12994
▁nerve	-12995
▁poker	-12996
▁quint	-12997
▁shell	-12998
▁teams	-12999
▁whiny	-13000
aghetti	-13001
ardless	-13002
ignific	-13003
▁/>4/10	-13004
▁Capote	-13005
▁Laurie	-13006
▁Simple	-13007
▁beside	-13008
▁bitten	-13009
▁flimsy	-13010
▁puzzle	-13011
▁sought	-13012
▁tossed	-13013
▁yellow	-13014
iverance	-13015
▁Cinemat	-13016
▁Eastern	-13017
▁Garland	-13018
▁Kinnear	-13019
▁Nicolas	-13020
▁appeals	-13021
▁arguing	-13022
▁buffalo	-13023
▁chopped	-13024
▁cliches	-13025
▁complet	-13026
▁constra	-13027
▁decline	-13028
▁descent	-13029
▁discern	-13030
▁flashes	-13031
▁implied	-13032
▁inherit	-13033
▁literal	-13034
▁naughty	-13035
▁pattern	-13036
▁pronoun	-13037
▁raising	-13038
▁sinking	-13039
▁stardom	-13040
▁studies	-13041
hetically	-13042
▁Sentinel	-13043
▁Twilight	-13044
▁accounts	-13045
▁cemetery	-13046
▁combines	-13047
▁divorced	-13048
▁enhanced	-13049
▁pleasing	-13050
▁promoted	-13051
▁sometime	-13052
▁stranded	-13053
▁wardrobe	-13054
▁convicted	-13055
▁estranged	-13056
▁published	-13057
▁repressed	-13058
▁scarecrow	-13059
▁comprehend	-13060
▁contribute	-13061
▁meandering	-13062
▁noticeable	-13063
▁principals	-13064
▁widescreen	-13065
▁approaching	-13066
▁devastating	-13067
▁excellently	-13068
▁enthusiastic	-13069
▁tremendously	-13070
▁homosexuality	-13071
▁characteristics	-13072
!?	-13073
<<	-13074
Ab	-13075
CM	-13076
Im	-13077
mn	-13078
oj	-13079
.),	-13080
.).	-13081
Bec	-13082
Dis	-13083
Men	-13084
Mid	-13085
Mon	-13086
cca	-13087
dro	-13088
ieg	-13089
lay	-13090
pah	-13091
saw	-13092
▁'8	-13093
▁3)	-13094
Much	-13095
adly	-13096
anca	-13097
anth	-13098
fman	-13099
icky	-13100
rary	-13101
rica	-13102
zech	-13103
zzzz	-13104
▁Hum	-13105
▁Kam	-13106
▁Lin	-13107
▁Tap	-13108
▁cue	-13109
Thank	-13110
andon	-13111
atoes	-13112
inian	-13113
olini	-13114
ounty	-13115
sorry	-13116
▁2003	-13117
▁Barr	-13118
▁Boss	-13119
▁Card	-13120
▁DOES	-13121
▁Duch	-13122
▁Gypo	-13123
▁Hale	-13124
▁Knox	-13125
▁Lass	-13126
▁MUCH	-13127
▁MUST	-13128
▁Main	-13129
▁Mall	-13130
▁Sond	-13131
▁Thor	-13132
▁avid	-13133
▁coff	-13134
▁conj	-13135
▁duck	-13136
▁hers	-13137
▁lion	-13138
▁melt	-13139
▁poke	-13140
▁trop	-13141
ARNING	-13142
▁Beach	-13143
▁Bloom	-13144
▁Bride	-13145
▁Errol	-13146
▁Kitty	-13147
▁Lance	-13148
▁Mabel	-13149
▁Pixar	-13150
▁Ratso	-13151
▁Tokyo	-13152
▁belly	-13153
▁goals	-13154
▁goods	-13155
▁plate	-13156
▁vigil	-13157
enezuel	-13158
without	-13159
▁Dudley	-13160
▁Evelyn	-13161
▁PLEASE	-13162
▁Puerto	-13163
▁Pumbaa	-13164
▁Salman	-13165
▁advers	-13166
▁babies	-13167
▁copied	-13168
▁ensure	-13169
▁expose	-13170
▁landed	-13171
▁morals	-13172
▁patron	-13173
▁reconc	-13174
▁washed	-13175
▁wounds	-13176
iterally	-13177
▁Antonio	-13178
▁Beverly	-13179
▁Diamond	-13180
▁Hackman	-13181
▁Sanders	-13182
▁Theatre	-13183
▁budgets	-13184
▁constit	-13185
▁glaring	-13186
▁longing	-13187
▁motorcy	-13188
▁ominous	-13189
▁outline	-13190
▁regards	-13191
▁rescued	-13192
▁strings	-13193
▁worship	-13194
assbinder	-13195
▁Randolph	-13196
▁Speaking	-13197
▁assuming	-13198
▁choosing	-13199
▁disabled	-13200
▁eternity	-13201
▁peculiar	-13202
▁resulted	-13203
▁selected	-13204
▁sensible	-13205
▁switched	-13206
▁tendency	-13207
▁theories	-13208
▁Robertson	-13209
▁absorbing	-13210
▁attacking	-13211
▁breakdown	-13212
▁intricate	-13213
▁parallels	-13214
▁Supporting	-13215
▁filmmaking	-13216
▁underworld	-13217
▁unconscious	-13218
▁experiencing	-13219
▁unsatisfying	-13220
▁sentimentality	-13221
GH	-13222
NY	-13223
Eng	-13224
Hor	-13225
Mel	-13226
NOT	-13227
War	-13228
cas	-13229
mid	-13230
ois	-13231
roe	-13232
tal	-13233
▁('	-13234
▁Ay	-13235
▁PC	-13236
aaaa	-13237
abby	-13238
amin	-13239
avan	-13240
bbie	-13241
fers	-13242
hole	-13243
know	-13244
omei	-13245
onti	-13246
prom	-13247
urbi	-13248
usey	-13249
▁Gre	-13250
▁Key	-13251
▁NBC	-13252
▁Tot	-13253
▁Toy	-13254
▁civ	-13255
Steve	-13256
ammed	-13257
amped	-13258
atile	-13259
▁/>**	-13260
▁Away	-13261
▁Bras	-13262
▁DVDs	-13263
▁Gone	-13264
▁Mast	-13265
▁Mend	-13266
▁WILL	-13267
▁chim	-13268
▁rope	-13269
▁slee	-13270
▁wash	-13271
People	-13272
abelle	-13273
actica	-13274
ailing	-13275
dyssey	-13276
ielgud	-13277
igious	-13278
isters	-13279
leased	-13280
ocracy	-13281
ridden	-13282
▁Blunt	-13283
▁Boris	-13284
▁Flash	-13285
▁Hawai	-13286
▁Irene	-13287
▁Kings	-13288
▁Niven	-13289
▁Thats	-13290
▁adopt	-13291
▁adore	-13292
▁alert	-13293
▁apply	-13294
▁babys	-13295
▁jaded	-13296
▁ninja	-13297
▁owned	-13298
▁races	-13299
▁rainy	-13300
▁rides	-13301
▁tapes	-13302
Because	-13303
bearing	-13304
esquire	-13305
▁Actors	-13306
▁Aussie	-13307
▁Bottom	-13308
▁Deanna	-13309
▁Govern	-13310
▁Hannah	-13311
▁Ronald	-13312
▁classy	-13313
▁eleven	-13314
▁extrav	-13315
▁freaks	-13316
▁ghetto	-13317
▁hollow	-13318
▁impecc	-13319
▁insect	-13320
▁insuff	-13321
▁lavish	-13322
▁midget	-13323
▁mixing	-13324
▁pocket	-13325
▁pursue	-13326
▁racing	-13327
▁stroke	-13328
▁traits	-13329
▁undead	-13330
▁wisely	-13331
▁Frances	-13332
▁Harriet	-13333
▁Pokemon	-13334
▁Private	-13335
▁Thurman	-13336
▁Vanessa	-13337
▁degener	-13338
▁diverse	-13339
▁embrace	-13340
▁fanatic	-13341
▁fragile	-13342
▁inmates	-13343
▁passage	-13344
▁readers	-13345
▁scandal	-13346
▁seeming	-13347
▁shining	-13348
▁whining	-13349
▁Berkeley	-13350
▁Hayworth	-13351
▁Minnelli	-13352
▁Secondly	-13353
▁canceled	-13354
▁crashing	-13355
▁crippled	-13356
▁cultures	-13357
▁expertly	-13358
▁peaceful	-13359
▁plotting	-13360
▁proclaim	-13361
▁prospect	-13362
▁stalking	-13363
▁swearing	-13364
enaissance	-13365
▁accepting	-13366
▁assembled	-13367
▁delicious	-13368
▁delighted	-13369
▁depending	-13370
▁inconsist	-13371
▁overblown	-13372
▁rewarding	-13373
▁sarcastic	-13374
▁suspected	-13375
▁Fassbinder	-13376
▁approached	-13377
▁astounding	-13378
▁deliberate	-13379
▁rebellious	-13380
▁indifferent	-13381
▁demonstrated	-13382
▁consideration	-13383
▁excruciatingly	-13384
FF	-13385
ANG	-13386
Den	-13387
ISS	-13388
ded	-13389
eek	-13390
ggy	-13391
lli	-13392
lma	-13393
mun	-13394
opp	-13395
umn	-13396
▁PO	-13397
▁SW	-13398
▁hi	-13399
chet	-13400
educ	-13401
empl	-13402
flix	-13403
isia	-13404
osal	-13405
unte	-13406
▁300	-13407
▁Bed	-13408
▁Boo	-13409
▁Cop	-13410
▁Fal	-13411
▁McN	-13412
▁cro	-13413
▁jet	-13414
elope	-13415
falls	-13416
gence	-13417
ieval	-13418
immer	-13419
odder	-13420
ymour	-13421
▁Born	-13422
▁Crim	-13423
▁Fors	-13424
▁Jill	-13425
▁Mack	-13426
▁Poll	-13427
▁Sara	-13428
▁Tara	-13429
▁Vega	-13430
▁angu	-13431
▁chat	-13432
▁doom	-13433
▁drew	-13434
▁harr	-13435
▁liqu	-13436
▁salv	-13437
▁synt	-13438
Return	-13439
advert	-13440
ciless	-13441
insale	-13442
ocking	-13443
osedly	-13444
veyard	-13445
ypical	-13446
▁Agent	-13447
▁Break	-13448
▁Curly	-13449
▁Czech	-13450
▁Fairy	-13451
▁Fight	-13452
▁Jules	-13453
▁Kudos	-13454
▁Outer	-13455
▁Phoen	-13456
▁Polly	-13457
▁Timmy	-13458
▁bombs	-13459
▁climb	-13460
▁compr	-13461
▁crank	-13462
▁crown	-13463
▁daddy	-13464
▁drill	-13465
▁fills	-13466
▁moron	-13467
▁phase	-13468
▁trace	-13469
fiction	-13470
quality	-13471
spiring	-13472
▁Cambod	-13473
▁Carmen	-13474
▁Casper	-13475
▁Gentle	-13476
▁Gerald	-13477
▁Iturbi	-13478
▁Muppet	-13479
▁Sebast	-13480
▁Sophie	-13481
▁Stupid	-13482
▁Sydney	-13483
▁aiming	-13484
▁approx	-13485
▁autobi	-13486
▁bewild	-13487
▁bureau	-13488
▁define	-13489
▁incarn	-13490
▁knocks	-13491
▁mouths	-13492
▁mutual	-13493
▁subway	-13494
▁Natalie	-13495
▁Seymour	-13496
▁Shepard	-13497
▁Spencer	-13498
▁commits	-13499
▁fifties	-13500
▁hateful	-13501
▁intertw	-13502
▁offbeat	-13503
▁origins	-13504
▁rampage	-13505
▁reports	-13506
▁settled	-13507
Meanwhile	-13508
▁Collette	-13509
▁Rowlands	-13510
▁Samantha	-13511
▁Sarandon	-13512
▁Shanghai	-13513
▁Shepherd	-13514
▁achieves	-13515
▁deterior	-13516
▁hardship	-13517
▁jealousy	-13518
▁massacre	-13519
▁minority	-13520
▁routines	-13521
▁survivor	-13522
▁Character	-13523
▁Fairbanks	-13524
▁Schneider	-13525
▁Victorian	-13526
▁addiction	-13527
▁obsessive	-13528
▁tolerable	-13529
▁celebrated	-13530
▁collective	-13531
▁commitment	-13532
▁kidnapping	-13533
▁playwright	-13534
▁anticipated	-13535
▁contributed	-13536
▁distraction	-13537
EY	-13538
Lu	-13539
WH	-13540
da	-13541
gut	-13542
lan	-13543
rek	-13544
▁(1	-13545
▁Ut	-13546
▁um	-13547
Life	-13548
conf	-13549
enia	-13550
oter	-13551
uder	-13552
ules	-13553
▁Cro	-13554
▁Few	-13555
▁Gig	-13556
▁Lil	-13557
▁Oak	-13558
▁Pfe	-13559
▁sor	-13560
▁voc	-13561
ahmer	-13562
asses	-13563
chant	-13564
inkle	-13565
later	-13566
nings	-13567
orous	-13568
ramer	-13569
upert	-13570
urous	-13571
uting	-13572
▁1996	-13573
▁2007	-13574
▁Berk	-13575
▁FROM	-13576
▁Hans	-13577
▁KNOW	-13578
▁Lead	-13579
▁Seed	-13580
▁Teen	-13581
▁bush	-13582
▁chee	-13583
▁coat	-13584
▁gray	-13585
▁quot	-13586
Bottom	-13587
Daniel	-13588
erotic	-13589
giving	-13590
market	-13591
scenes	-13592
▁Chiba	-13593
▁Creek	-13594
▁Creep	-13595
▁Doyle	-13596
▁Jenna	-13597
▁Jolie	-13598
▁Judge	-13599
▁Korea	-13600
▁McInt	-13601
▁Royal	-13602
▁Thorn	-13603
▁Troma	-13604
▁catal	-13605
▁condu	-13606
▁dwarf	-13607
▁faint	-13608
▁havoc	-13609
▁horny	-13610
▁kudos	-13611
▁ninet	-13612
▁packs	-13613
▁pause	-13614
▁pione	-13615
▁poses	-13616
▁puppy	-13617
▁squee	-13618
▁taped	-13619
▁unans	-13620
▁vomit	-13621
▁yours	-13622
autiful	-13623
otional	-13624
▁Bogart	-13625
▁Haines	-13626
▁Prison	-13627
▁Wizard	-13628
▁adjust	-13629
▁dealer	-13630
▁defies	-13631
▁flavor	-13632
▁judged	-13633
▁pathos	-13634
▁policy	-13635
▁pushes	-13636
▁slaves	-13637
▁sleeps	-13638
ountered	-13639
▁Citizen	-13640
▁Clooney	-13641
▁Elliott	-13642
▁Georgia	-13643
▁Gielgud	-13644
▁Gilbert	-13645
▁Samurai	-13646
▁admired	-13647
▁begging	-13648
▁expense	-13649
▁fleshed	-13650
▁inexper	-13651
▁lighter	-13652
▁longest	-13653
▁nuances	-13654
▁popping	-13655
▁readily	-13656
▁rounded	-13657
▁skilled	-13658
▁updated	-13659
essential	-13660
▁Arquette	-13661
▁Bachchan	-13662
▁Children	-13663
▁Instinct	-13664
▁Longoria	-13665
▁McCarthy	-13666
▁Pfeiffer	-13667
▁acquired	-13668
▁cleaning	-13669
▁escaping	-13670
▁explodes	-13671
▁likewise	-13672
▁mystical	-13673
▁respects	-13674
▁romances	-13675
▁salesman	-13676
▁seasoned	-13677
▁shootout	-13678
▁arguments	-13679
▁attending	-13680
▁immigrant	-13681
▁monologue	-13682
▁possesses	-13683
▁redundant	-13684
▁regularly	-13685
▁remembers	-13686
▁reviewing	-13687
▁sickening	-13688
▁unwilling	-13689
▁continuing	-13690
▁disrespect	-13691
▁optimistic	-13692
▁underwater	-13693
▁encountered	-13694
▁conveniently	-13695
▁dramatically	-13696
▁screenwriters	-13697
▁unsympathetic	-13698
-8	-13699
PP	-13700
ITE	-13701
ITY	-13702
Jon	-13703
OMB	-13704
Sil	-13705
Tar	-13706
bon	-13707
wic	-13708
▁FE	-13709
▁WE	-13710
Cast	-13711
feld	-13712
much	-13713
must	-13714
oots	-13715
oust	-13716
uber	-13717
uded	-13718
▁Ass	-13719
▁Ban	-13720
▁Bin	-13721
▁Fun	-13722
▁HOR	-13723
▁Nik	-13724
▁Tow	-13725
▁dun	-13726
RIBLE	-13727
aputa	-13728
arted	-13729
athon	-13730
erity	-13731
icine	-13732
igans	-13733
ocaly	-13734
▁1972	-13735
▁Anil	-13736
▁Corn	-13737
▁Deep	-13738
▁Dest	-13739
▁Fein	-13740
▁Hers	-13741
▁Holy	-13742
▁Hulk	-13743
▁Luis	-13744
▁Nina	-13745
▁Toby	-13746
▁Work	-13747
▁abst	-13748
▁drab	-13749
▁loop	-13750
▁pomp	-13751
▁rear	-13752
▁tire	-13753
▁turt	-13754
▁verb	-13755
antasm	-13756
engers	-13757
mented	-13758
onents	-13759
owered	-13760
people	-13761
ployed	-13762
ulsion	-13763
▁Blade	-13764
▁Brent	-13765
▁Crist	-13766
▁Erika	-13767
▁Happy	-13768
▁Irons	-13769
▁Today	-13770
▁Tomei	-13771
▁aided	-13772
▁caret	-13773
▁denou	-13774
▁draft	-13775
▁hypoc	-13776
▁overd	-13777
▁polar	-13778
▁ranch	-13779
▁sells	-13780
▁sober	-13781
▁swept	-13782
▁users	-13783
▁wider	-13784
cending	-13785
despite	-13786
redited	-13787
▁/>8/10	-13788
▁Gibson	-13789
▁Herman	-13790
▁Psycho	-13791
▁archae	-13792
▁enlist	-13793
▁exempl	-13794
▁intact	-13795
▁marked	-13796
▁pirate	-13797
▁posing	-13798
▁swords	-13799
▁wastes	-13800
▁wholes	-13801
▁Bridges	-13802
▁Cheadle	-13803
▁Israeli	-13804
▁Network	-13805
▁anxious	-13806
▁circles	-13807
▁excuses	-13808
▁masturb	-13809
▁missile	-13810
▁psyched	-13811
▁reverse	-13812
▁slapped	-13813
▁vintage	-13814
conceived	-13815
entertain	-13816
indulgent	-13817
▁Franklin	-13818
▁Westerns	-13819
▁airplane	-13820
▁attended	-13821
▁crossing	-13822
▁elephant	-13823
▁employee	-13824
▁informed	-13825
▁produces	-13826
▁reviewed	-13827
▁stylized	-13828
▁Direction	-13829
▁Europeans	-13830
▁Notorious	-13831
▁aftermath	-13832
▁afterward	-13833
▁brainless	-13834
▁dominated	-13835
▁evidently	-13836
▁forbidden	-13837
▁gentleman	-13838
▁instances	-13839
▁instincts	-13840
▁invention	-13841
▁seductive	-13842
▁spaceship	-13843
▁legitimate	-13844
▁passengers	-13845
▁phenomenal	-13846
▁statements	-13847
▁wheelchair	-13848
▁composition	-13849
▁intentional	-13850
▁remembering	-13851
▁establishing	-13852
▁psychologist	-13853
▁relentlessly	-13854
)?	-13855
AK	-13856
!)<	-13857
IND	-13858
RED	-13859
amo	-13860
err	-13861
fem	-13862
owa	-13863
rec	-13864
▁4-	-13865
▁DJ	-13866
AAAA	-13867
Both	-13868
Fred	-13869
Home	-13870
Rose	-13871
hear	-13872
pons	-13873
scar	-13874
vous	-13875
▁Cob	-13876
▁END	-13877
▁Ish	-13878
▁Pav	-13879
▁Sue	-13880
▁mim	-13881
▁ric	-13882
Three	-13883
ailed	-13884
amour	-13885
athom	-13886
first	-13887
happy	-13888
inski	-13889
level	-13890
lings	-13891
psons	-13892
utton	-13893
▁1920	-13894
▁Duck	-13895
▁Host	-13896
▁Juan	-13897
▁Mess	-13898
▁Pass	-13899
▁Shot	-13900
▁bald	-13901
▁beef	-13902
▁begs	-13903
▁blob	-13904
▁exit	-13905
▁grip	-13906
▁http	-13907
▁idol	-13908
▁mute	-13909
▁offs	-13910
▁ware	-13911
anding	-13912
former	-13913
phanie	-13914
struck	-13915
▁Arkin	-13916
▁Boliv	-13917
▁Busey	-13918
▁Clara	-13919
▁Clive	-13920
▁Heath	-13921
▁LOVED	-13922
▁Leave	-13923
▁Ricky	-13924
▁Urban	-13925
▁agony	-13926
▁arche	-13927
▁bones	-13928
▁chill	-13929
▁clerk	-13930
▁dolls	-13931
▁manif	-13932
▁scant	-13933
▁slide	-13934
▁spray	-13935
▁stubb	-13936
▁whims	-13937
.......	-13938
landish	-13939
profess	-13940
▁Amrita	-13941
▁Gamera	-13942
▁Giallo	-13943
▁Greene	-13944
▁Hidden	-13945
▁Impact	-13946
▁Lauren	-13947
▁Madsen	-13948
▁Palest	-13949
▁Porter	-13950
▁Wright	-13951
▁abound	-13952
▁bounty	-13953
▁breast	-13954
▁empath	-13955
▁feeble	-13956
▁fields	-13957
▁fierce	-13958
▁filthy	-13959
▁injust	-13960
▁ordeal	-13961
▁scored	-13962
▁skinny	-13963
▁snakes	-13964
▁sucker	-13965
▁upside	-13966
▁verbal	-13967
iciently	-13968
▁/>10/10	-13969
▁Clearly	-13970
▁Dominic	-13971
▁Million	-13972
▁Northam	-13973
▁Phoenix	-13974
▁feeding	-13975
▁funding	-13976
▁masters	-13977
▁motions	-13978
▁privile	-13979
▁pursued	-13980
▁sources	-13981
▁tactics	-13982
▁tickets	-13983
▁tourist	-13984
chnically	-13985
▁Columbia	-13986
▁Moreover	-13987
▁Original	-13988
▁adaption	-13989
▁champion	-13990
▁dynamics	-13991
▁freaking	-13992
▁inadvert	-13993
▁indicate	-13994
▁minister	-13995
▁resident	-13996
▁starters	-13997
▁Ultimatum	-13998
▁ambitions	-13999
▁anthology	-14000
▁breathing	-14001
▁centuries	-14002
▁criticize	-14003
▁explosive	-14004
▁horrified	-14005
▁inclusion	-14006
▁neglected	-14007
▁obstacles	-14008
▁populated	-14009
▁sentences	-14010
▁unusually	-14011
▁Beckinsale	-14012
▁distracted	-14013
▁noteworthy	-14014
▁pedestrian	-14015
▁unanswered	-14016
▁controlling	-14017
▁informative	-14018
▁realization	-14019
▁respectable	-14020
▁mysteriously	-14021
200	-14022
?".	-14023
ACE	-14024
Luc	-14025
Pal	-14026
RAP	-14027
URE	-14028
aro	-14029
bes	-14030
bie	-14031
din	-14032
gob	-14033
lda	-14034
▁3,	-14035
▁6.	-14036
▁9.	-14037
▁95	-14038
?!?!	-14039
Jean	-14040
Part	-14041
eous	-14042
erve	-14043
grat	-14044
guez	-14045
have	-14046
isen	-14047
lean	-14048
lent	-14049
rine	-14050
umpy	-14051
wall	-14052
▁/>9	-14053
▁GOD	-14054
▁Ill	-14055
▁LOL	-14056
▁NOW	-14057
▁Oct	-14058
▁Sem	-14059
▁Sgt	-14060
▁TCM	-14061
▁dut	-14062
▁fer	-14063
armed	-14064
dance	-14065
ician	-14066
loria	-14067
odore	-14068
ornbl	-14069
owski	-14070
oyant	-14071
regor	-14072
▁1983	-14073
▁1997	-14074
▁2002	-14075
▁Batt	-14076
▁Jedi	-14077
▁July	-14078
▁Mick	-14079
▁Must	-14080
▁Toni	-14081
▁agon	-14082
▁cage	-14083
▁gate	-14084
▁masc	-14085
▁mold	-14086
▁soup	-14087
▁void	-14088
ansson	-14089
perial	-14090
▁Awful	-14091
▁Bravo	-14092
▁Claud	-14093
▁Conan	-14094
▁Edith	-14095
▁Kirst	-14096
▁Mafia	-14097
▁Miami	-14098
▁Monty	-14099
▁NIGHT	-14100
▁Rodri	-14101
▁STILL	-14102
▁Vince	-14103
▁Vonne	-14104
▁Worse	-14105
▁begun	-14106
▁clone	-14107
▁conco	-14108
▁flirt	-14109
▁hyped	-14110
▁manic	-14111
▁midst	-14112
▁panic	-14113
▁revis	-14114
▁royal	-14115
▁slack	-14116
▁smash	-14117
▁snuff	-14118
▁warns	-14119
▁wiped	-14120
iterate	-14121
omaniac	-14122
rospect	-14123
▁Celest	-14124
▁Fallon	-14125
▁Godard	-14126
▁Mostly	-14127
▁Sweden	-14128
▁Winter	-14129
▁attach	-14130
▁blamed	-14131
▁bosses	-14132
▁freaky	-14133
▁harass	-14134
▁hybrid	-14135
▁kidnap	-14136
▁morons	-14137
▁occult	-14138
▁overst	-14139
▁psyche	-14140
▁stance	-14141
▁varied	-14142
Midnight	-14143
offerson	-14144
tersweet	-14145
▁Beowulf	-14146
▁Detroit	-14147
▁Frankly	-14148
▁Herbert	-14149
▁Iranian	-14150
▁Jacques	-14151
▁Miranda	-14152
▁discipl	-14153
▁forties	-14154
▁novelty	-14155
▁parking	-14156
▁rejects	-14157
▁replies	-14158
▁request	-14159
▁stabbed	-14160
▁stalked	-14161
▁stating	-14162
ocalyptic	-14163
▁Directed	-14164
▁Sundance	-14165
▁Together	-14166
▁Venezuel	-14167
▁Visconti	-14168
▁avoiding	-14169
▁chemical	-14170
▁covering	-14171
▁daylight	-14172
▁feminine	-14173
▁generate	-14174
▁momentum	-14175
▁pointing	-14176
▁products	-14177
▁discussed	-14178
▁exploding	-14179
▁exploited	-14180
▁followers	-14181
▁incidents	-14182
▁merciless	-14183
▁prejudice	-14184
▁relevance	-14185
▁scripting	-14186
Christopher	-14187
▁Depression	-14188
▁Winchester	-14189
▁aggressive	-14190
▁assignment	-14191
▁denouement	-14192
▁depictions	-14193
▁executives	-14194
▁possession	-14195
▁shockingly	-14196
▁suggesting	-14197
▁contestants	-14198
▁controversy	-14199
▁exclusively	-14200
▁delightfully	-14201
▁excruciating	-14202
▁surroundings	-14203
"<	-14204
/3	-14205
Del	-14206
ILD	-14207
REE	-14208
aha	-14209
cat	-14210
ooo	-14211
pop	-14212
uev	-14213
wit	-14214
▁Ve	-14215
!).<	-14216
King	-14217
Next	-14218
TAIN	-14219
ackt	-14220
best	-14221
coll	-14222
dict	-14223
door	-14224
etle	-14225
five	-14226
imbo	-14227
jack	-14228
nity	-14229
oker	-14230
rice	-14231
uire	-14232
▁BOR	-14233
▁Box	-14234
▁Lie	-14235
▁Mem	-14236
▁Pia	-14237
▁TER	-14238
▁Tam	-14239
▁Web	-14240
▁caf	-14241
▁ost	-14242
▁pup	-14243
Blood	-14244
count	-14245
erman	-14246
iston	-14247
itors	-14248
onous	-14249
polit	-14250
scene	-14251
takes	-14252
uropa	-14253
▁1968	-14254
▁Cond	-14255
▁Dumb	-14256
▁Heck	-14257
▁SHOW	-14258
▁Same	-14259
▁Vien	-14260
▁auth	-14261
▁burd	-14262
▁deer	-14263
▁gaps	-14264
▁meal	-14265
▁nurs	-14266
▁pans	-14267
▁pose	-14268
▁zone	-14269
Murray	-14270
apture	-14271
encing	-14272
rendel	-14273
umbled	-14274
voiced	-14275
witted	-14276
▁Darth	-14277
▁Forsy	-14278
▁Guess	-14279
▁Hayes	-14280
▁Money	-14281
▁Wrest	-14282
▁clash	-14283
▁depra	-14284
▁fifth	-14285
▁innue	-14286
▁items	-14287
▁joint	-14288
▁lends	-14289
▁murky	-14290
▁prank	-14291
▁quasi	-14292
▁recur	-14293
▁seats	-14294
▁traps	-14295
▁trump	-14296
▁tuned	-14297
athered	-14298
forming	-14299
▁Animal	-14300
▁Barbra	-14301
▁Creasy	-14302
▁Goldie	-14303
▁Hooper	-14304
▁Python	-14305
▁Reiser	-14306
▁Runner	-14307
▁Shadow	-14308
▁Terror	-14309
▁attrib	-14310
▁backed	-14311
▁campus	-14312
▁catast	-14313
▁dumped	-14314
▁glance	-14315
▁mighty	-14316
▁paints	-14317
▁rehash	-14318
▁resume	-14319
▁rounds	-14320
▁shrink	-14321
▁volume	-14322
ittingly	-14323
▁Beckham	-14324
▁Collins	-14325
▁DeMille	-14326
▁Goodman	-14327
▁Indiana	-14328
▁Lampoon	-14329
▁Lucille	-14330
▁Netflix	-14331
▁Wendigo	-14332
▁borders	-14333
▁cliched	-14334
▁descend	-14335
▁dumbest	-14336
▁frantic	-14337
▁lurking	-14338
▁macabre	-14339
▁periods	-14340
▁uncanny	-14341
▁virtual	-14342
abilities	-14343
adventure	-14344
erminator	-14345
▁Giovanna	-14346
▁Suddenly	-14347
▁Vampires	-14348
▁Vonnegut	-14349
▁Whenever	-14350
▁arranged	-14351
▁artistry	-14352
▁deciding	-14353
▁imprison	-14354
▁meantime	-14355
▁plodding	-14356
▁rambling	-14357
▁schedule	-14358
Everything	-14359
▁Feinstone	-14360
▁enigmatic	-14361
▁furniture	-14362
▁mythology	-14363
▁originals	-14364
▁principle	-14365
▁scenarios	-14366
▁sensation	-14367
▁translate	-14368
▁detectives	-14369
▁ironically	-14370
▁university	-14371
▁introducing	-14372
▁Thunderbirds	-14373
▁inaccuracies	-14374
▁participants	-14375
▁embarrassingly	-14376
VO	-14377
gi	-14378
iy	-14379
sk	-14380
AGE	-14381
ARS	-14382
OUT	-14383
bar	-14384
ege	-14385
iju	-14386
los	-14387
ova	-14388
ria	-14389
sim	-14390
▁28	-14391
▁AB	-14392
▁Ew	-14393
▁GR	-14394
Cind	-14395
Moon	-14396
More	-14397
afoe	-14398
agin	-14399
akin	-14400
arte	-14401
clim	-14402
fare	-14403
fell	-14404
gone	-14405
holm	-14406
icer	-14407
iler	-14408
ilyn	-14409
inky	-14410
take	-14411
usch	-14412
warz	-14413
wick	-14414
ymph	-14415
▁BET	-14416
▁Ced	-14417
▁Gov	-14418
▁HOW	-14419
▁Moh	-14420
▁Pak	-14421
▁Rid	-14422
▁Sel	-14423
▁lol	-14424
▁nun	-14425
▁piv	-14426
▁ree	-14427
▁tho	-14428
▁vic	-14429
Brien	-14430
Chris	-14431
Those	-14432
alter	-14433
being	-14434
chron	-14435
enses	-14436
jokes	-14437
ommel	-14438
twist	-14439
▁/>4.	-14440
▁1936	-14441
▁Alas	-14442
▁Azte	-14443
▁Diet	-14444
▁Kris	-14445
▁Lowe	-14446
▁bowl	-14447
▁clan	-14448
▁deft	-14449
▁hats	-14450
▁pant	-14451
▁prow	-14452
▁rips	-14453
▁rose	-14454
▁sinc	-14455
▁spit	-14456
▁wine	-14457
Batman	-14458
active	-14459
ardust	-14460
eating	-14461
lestar	-14462
marish	-14463
mighty	-14464
orical	-14465
sworth	-14466
▁Bauer	-14467
▁Chong	-14468
▁Scare	-14469
▁blink	-14470
▁boost	-14471
▁burns	-14472
▁chron	-14473
▁cycle	-14474
▁downs	-14475
▁pains	-14476
▁pound	-14477
▁wings	-14478
Charles	-14479
ablanca	-14480
ceptive	-14481
eredith	-14482
fighter	-14483
lusions	-14484
▁10/10.	-14485
▁Blaise	-14486
▁Cannes	-14487
▁Claude	-14488
▁Duchov	-14489
▁Ernest	-14490
▁Finney	-14491
▁Garner	-14492
▁Jersey	-14493
▁Melody	-14494
▁Plenty	-14495
▁Stiles	-14496
▁Whilst	-14497
▁bikini	-14498
▁gloomy	-14499
▁hinted	-14500
▁injury	-14501
▁linked	-14502
▁mentor	-14503
▁mutant	-14504
▁palace	-14505
▁papers	-14506
▁parade	-14507
▁phones	-14508
▁popped	-14509
▁raunch	-14510
▁resent	-14511
▁scarce	-14512
▁shades	-14513
▁shifts	-14514
▁sights	-14515
▁trauma	-14516
▁videot	-14517
inducing	-14518
producer	-14519
▁Bennett	-14520
▁Firstly	-14521
▁Gooding	-14522
▁Gwyneth	-14523
▁Randall	-14524
▁Service	-14525
▁applies	-14526
▁carnage	-14527
▁eagerly	-14528
▁ignores	-14529
▁qualify	-14530
▁session	-14531
▁thieves	-14532
appealing	-14533
omination	-14534
unningham	-14535
▁Simpsons	-14536
▁capacity	-14537
▁cheerful	-14538
▁economic	-14539
▁gestures	-14540
▁glimpses	-14541
▁medieval	-14542
▁relating	-14543
▁rewarded	-14544
▁thirties	-14545
▁upcoming	-14546
▁Christina	-14547
▁extensive	-14548
▁festivals	-14549
▁practical	-14550
▁reflected	-14551
▁releasing	-14552
▁suspicion	-14553
▁vignettes	-14554
▁forgetting	-14555
▁outlandish	-14556
▁resembling	-14557
▁resistance	-14558
▁bittersweet	-14559
▁deliciously	-14560
▁predictably	-14561
▁psychedelic	-14562
▁substantial	-14563
▁investigator	-14564
▁satisfaction	-14565
▁misunderstood	-14566
/4	-14567
?,	-14568
UB	-14569
Ali	-14570
Doo	-14571
Get	-14572
jor	-14573
pen	-14574
▁MO	-14575
▁oo	-14576
Mark	-14577
Take	-14578
abba	-14579
akis	-14580
aria	-14581
ingo	-14582
jerk	-14583
lets	-14584
lund	-14585
mart	-14586
moon	-14587
opez	-14588
vere	-14589
yeah	-14590
▁40'	-14591
▁Buy	-14592
▁Faw	-14593
▁Gus	-14594
▁Jos	-14595
▁Kle	-14596
▁Lup	-14597
▁Pin	-14598
▁Rea	-14599
▁Roe	-14600
▁axe	-14601
▁gap	-14602
▁lum	-14603
▁upt	-14604
White	-14605
aside	-14606
drawn	-14607
ellow	-14608
iking	-14609
itous	-14610
izoph	-14611
jamin	-14612
oodoo	-14613
ourke	-14614
oused	-14615
phone	-14616
pring	-14617
rates	-14618
thank	-14619
uture	-14620
▁Body	-14621
▁Brig	-14622
▁Dahl	-14623
▁Guev	-14624
▁Hawn	-14625
▁Keep	-14626
▁Krue	-14627
▁McAd	-14628
▁Niel	-14629
▁Otto	-14630
▁Thin	-14631
▁bias	-14632
▁desk	-14633
▁diab	-14634
▁gasp	-14635
▁keys	-14636
▁mans	-14637
▁neut	-14638
▁taut	-14639
▁wart	-14640
ailand	-14641
arters	-14642
atered	-14643
emisia	-14644
fights	-14645
ienced	-14646
oylent	-14647
render	-14648
▁Aaron	-14649
▁BLOOD	-14650
▁Brett	-14651
▁Cross	-14652
▁Dafoe	-14653
▁Dandy	-14654
▁Front	-14655
▁Going	-14656
▁Gunga	-14657
▁Hines	-14658
▁Jodie	-14659
▁Locke	-14660
▁Olsen	-14661
▁Russo	-14662
▁Sammo	-14663
▁array	-14664
▁aspir	-14665
▁elite	-14666
▁fever	-14667
▁flamb	-14668
▁flour	-14669
▁mates	-14670
▁perce	-14671
▁shift	-14672
▁snaps	-14673
▁union	-14674
▁unner	-14675
▁vault	-14676
▁worms	-14677
Besides	-14678
ouching	-14679
▁/>7/10	-14680
▁Debbie	-14681
▁Gannon	-14682
▁Hollow	-14683
▁Mormon	-14684
▁Myrtle	-14685
▁Olivia	-14686
▁Stella	-14687
▁Wayans	-14688
▁dreamy	-14689
▁excell	-14690
▁flames	-14691
▁invite	-14692
▁pounds	-14693
▁safely	-14694
▁tunnel	-14695
actually	-14696
illusion	-14697
izophren	-14698
▁Dentist	-14699
▁Fellini	-14700
▁Marilyn	-14701
▁Martino	-14702
▁Revenge	-14703
▁altered	-14704
▁applied	-14705
▁caution	-14706
▁cooking	-14707
▁drowned	-14708
▁frontal	-14709
▁kingdom	-14710
▁nuanced	-14711
▁playful	-14712
▁resolve	-14713
▁reunite	-14714
▁roughly	-14715
▁serials	-14716
▁unclear	-14717
▁widowed	-14718
alifornia	-14719
▁Anything	-14720
▁Exorcist	-14721
▁Juliette	-14722
▁Stargate	-14723
▁administ	-14724
▁balanced	-14725
▁benefits	-14726
▁distaste	-14727
▁entrance	-14728
▁foremost	-14729
▁gigantic	-14730
▁invested	-14731
▁magician	-14732
▁paranoid	-14733
▁unstable	-14734
▁Blandings	-14735
▁Johansson	-14736
▁Rodriguez	-14737
▁addressed	-14738
▁ambiguity	-14739
▁candidate	-14740
▁diversity	-14741
▁graveyard	-14742
▁intensely	-14743
▁lightning	-14744
▁maintains	-14745
▁necessity	-14746
▁revolving	-14747
▁screwball	-14748
▁Admittedly	-14749
▁Ironically	-14750
▁Production	-14751
▁Ultimately	-14752
▁boundaries	-14753
▁favourites	-14754
▁sufficient	-14755
▁Interesting	-14756
▁Renaissance	-14757
▁acknowledge	-14758
▁consequence	-14759
▁handicapped	-14760
▁overbearing	-14761
▁pornography	-14762
▁Kristofferson	-14763
▁realistically	-14764
NA	-14765
Joe	-14766
May	-14767
VIL	-14768
ahi	-14769
aku	-14770
cor	-14771
ige	-14772
loe	-14773
non	-14774
ulu	-14775
Back	-14776
Cont	-14777
Film	-14778
bath	-14779
bles	-14780
enzo	-14781
fini	-14782
hang	-14783
ichi	-14784
inea	-14785
isse	-14786
oche	-14787
otch	-14788
post	-14789
uese	-14790
▁Ach	-14791
▁Bou	-14792
▁Bri	-14793
▁FUN	-14794
▁Kau	-14795
▁Luz	-14796
▁Mos	-14797
▁Owl	-14798
▁Spy	-14799
▁ber	-14800
▁maj	-14801
▁tyr	-14802
Grade	-14803
Paris	-14804
Sorry	-14805
argas	-14806
ashan	-14807
assic	-14808
astly	-14809
avery	-14810
enton	-14811
iator	-14812
leine	-14813
scape	-14814
uates	-14815
write	-14816
wrote	-14817
▁*1/2	-14818
▁1999	-14819
▁Chen	-14820
▁Cody	-14821
▁Lola	-14822
▁Mead	-14823
▁Vera	-14824
▁alot	-14825
▁auto	-14826
▁bats	-14827
▁craw	-14828
▁grie	-14829
▁jock	-14830
▁mail	-14831
▁mand	-14832
▁mech	-14833
▁mins	-14834
▁sway	-14835
▁taxi	-14836
▁unde	-14837
Unlike	-14838
ardieu	-14839
arence	-14840
atized	-14841
hinged	-14842
ington	-14843
loving	-14844
reated	-14845
ternal	-14846
▁Angie	-14847
▁Combs	-14848
▁Corey	-14849
▁Faith	-14850
▁Islam	-14851
▁Lopez	-14852
▁STORY	-14853
▁WRONG	-14854
▁Wrong	-14855
▁ample	-14856
▁artif	-14857
▁beard	-14858
▁bloss	-14859
▁burnt	-14860
▁downt	-14861
▁epics	-14862
▁grind	-14863
▁haunt	-14864
▁north	-14865
▁patch	-14866
▁reign	-14867
▁smell	-14868
▁snipp	-14869
▁stair	-14870
▁sunny	-14871
▁toned	-14872
Titanic	-14873
goblins	-14874
imately	-14875
inently	-14876
meaning	-14877
mouthed	-14878
parents	-14879
▁Boring	-14880
▁Denise	-14881
▁Garden	-14882
▁Hardly	-14883
▁Jagger	-14884
▁Reagan	-14885
▁Slater	-14886
▁Sondra	-14887
▁Vargas	-14888
▁admits	-14889
▁assure	-14890
▁biting	-14891
▁bubble	-14892
▁deemed	-14893
▁evokes	-14894
▁frozen	-14895
▁hooker	-14896
▁payoff	-14897
▁pilots	-14898
▁planes	-14899
▁sanity	-14900
▁shocks	-14901
▁slower	-14902
▁submar	-14903
periment	-14904
▁Bernsen	-14905
▁Crystal	-14906
▁Ferrell	-14907
▁Maureen	-14908
▁Monkeys	-14909
▁Muslims	-14910
▁Phantom	-14911
▁Streets	-14912
▁cunning	-14913
▁furious	-14914
▁grabbed	-14915
▁hippies	-14916
▁lunatic	-14917
▁monkeys	-14918
▁narciss	-14919
▁perplex	-14920
▁prolong	-14921
▁quantum	-14922
▁repeats	-14923
▁rightly	-14924
▁robbers	-14925
▁shotgun	-14926
▁studied	-14927
▁suffice	-14928
▁targets	-14929
▁therapy	-14930
▁thereby	-14931
▁tightly	-14932
▁traffic	-14933
Basically	-14934
▁Brashear	-14935
▁Gershwin	-14936
▁Haunting	-14937
▁McDonald	-14938
▁Meredith	-14939
▁Penelope	-14940
▁Thailand	-14941
▁arriving	-14942
▁chuckles	-14943
▁confined	-14944
▁controls	-14945
▁finishes	-14946
▁narrated	-14947
▁novelist	-14948
▁nutshell	-14949
▁perverse	-14950
▁realises	-14951
▁restrict	-14952
▁sketches	-14953
▁tomorrow	-14954
▁uniforms	-14955
▁veterans	-14956
▁Communist	-14957
▁Entertain	-14958
▁Galactica	-14959
▁MacDonald	-14960
▁Silverman	-14961
▁arrogance	-14962
▁customers	-14963
▁murderers	-14964
▁sincerity	-14965
▁skeptical	-14966
documentary	-14967
▁Cunningham	-14968
▁antagonist	-14969
▁displaying	-14970
▁enchanting	-14971
▁nauseating	-14972
▁overshadow	-14973
▁progressed	-14974
▁similarity	-14975
▁villainous	-14976
▁witnessing	-14977
▁interviewed	-14978
▁nightmarish	-14979
▁unappealing	-14980
▁hysterically	-14981
▁observations	-14982
▁determination	-14983
▁understatement	-14984
-9	-14985
TS	-14986
WW	-14987
sn	-14988
(19	-14989
ALK	-14990
Air	-14991
Mac	-14992
Wow	-14993
bec	-14994
hur	-14995
oak	-14996
rio	-14997
sub	-14998
uer	-14999
yon	-15000
▁4,	-15001
▁Dw	-15002
▁MJ	-15003
▁PS	-15004
Anna	-15005
IBLE	-15006
OUSE	-15007
bird	-15008
cers	-15009
cons	-15010
iate	-15011
ihil	-15012
izza	-15013
oren	-15014
trap	-15015
uing	-15016
ussy	-15017
ypse	-15018
▁Fry	-15019
▁Hir	-15020
▁Hoo	-15021
▁IMO	-15022
▁Lon	-15023
▁Tib	-15024
▁bum	-15025
▁cad	-15026
▁mum	-15027
▁pic	-15028
▁ray	-15029
Thing	-15030
alike	-15031
ianni	-15032
illes	-15033
rsula	-15034
steps	-15035
tones	-15036
ulars	-15037
weigh	-15038
whose	-15039
zanne	-15040
▁Bomb	-15041
▁Gino	-15042
▁Murd	-15043
▁Nora	-15044
▁coma	-15045
▁conn	-15046
▁faux	-15047
▁fier	-15048
▁gamb	-15049
▁gard	-15050
▁herd	-15051
▁mice	-15052
▁rapt	-15053
Tarzan	-15054
inates	-15055
iolent	-15056
irious	-15057
mation	-15058
second	-15059
stance	-15060
▁Cindy	-15061
▁Daisy	-15062
▁Diego	-15063
▁Evans	-15064
▁Kathy	-15065
▁Levin	-15066
▁Mandy	-15067
▁Opera	-15068
▁Tales	-15069
▁Vaugh	-15070
▁choir	-15071
▁erupt	-15072
▁fruit	-15073
▁hills	-15074
▁illum	-15075
▁notor	-15076
▁parag	-15077
▁penal	-15078
▁sheep	-15079
▁spawn	-15080
▁stake	-15081
▁tones	-15082
appreci	-15083
culture	-15084
[...]
